97938f979390979390979390979390989390979390979390989390
97939097938f979390979390979390979390979390979390979390
97939097939097938f979390979390979390979390979390979390
97939097939097939097939097939097939097928f979390979390
97939097939097939097929097939097939097928f97928f979390
97939097939097939097928f97929097939097928f97928f97928f
97929097939097939096929097928f97929096928f97928f97928f
97929097929097939096929096929097928f95928f96928f97928f
98939097929097929098939096929096929097939095928f96928f
98939098939097929098939098939096929098939097939095928f
979390989390989390979390989390989390979390989390979390
979390979390989390979390979390989390969290979390989390
979390979390979390979390979390979390969390969290979390
979390979390979390989390979390979390979390969390969290
97939097939097939097939098939097939095928f979390969390
97939097939097939097939097939098939095929095928f979390
97939097939097939097939097939097939096929095929095928f
979390979390979390979390979390979390969290969290959290
989390979390979390989390979390979390969290969290969290
98939098939097939098939098939097939095918f969290969290
98939098939098939098939198939098939095918f95918f969290
98939098939098939098939098939198939095918f95918f95918f
98949098939098939098939098939098939195918f95918f95918f
98949098949098939098939098939098939095918f95918f95918f
99939098949098949098939198939098939095908e95918f95918f
989491999390989490989391989391989390938f8d95908e95918f
98939098949199939098939098939198939194908e938f8d95908e
98939098939098949198939098939098939194908e94908e938f8d
98939098939098939097939098939098939094908d94908e94908e
989390989390989390979390979390989390928f8c94908d94908e
97939097939097939097938f979390979390979390979390989390
97939097939097939097939097938f979390979390979390979390
97939097939097939097939097939097938f979390979390979390
979290979390979390979390979390979390979390979390979390
979390979290979390979390979390979390979290979390979390
97929097939097929097939097939097939097928f979290979390
97929097929097939097929097939097939096929097928f979290
96929097929097929097929097929097939096929096929097928f
989390969290979290989390979290979290989390969290969290
989390989390969290989390989390979290989390989390969290
979290989390989390979390989390989390979390989390989390
97928f979290989390979390979390989390979390979390989390
96918f97928f979290979390979390979390979390979390979390
95918f96918f97928f979390979390979390989390979390979390
94908f95918f96918f979390979390979390979390989390979390
94908f94908f95918f979390979390979390979390979390989390
94918f94908f94908f979390979390979390979390979390979390
95918f94918f94908f979390979390979390979390979390979390
96929095918f94918f989390979390979390989390979390979390
97939096929095918f989390989390979390989390989390979390
989390979390969290989390989390989390989391989390989390
989391989390979390989390989390989390989390989391989390
989390989391989390989490989390989390989390989390989391
989390989390989391989490989490989390989390989390989390
989390989390989390999390989490989490989391989390989390
989490989390989390989491999390989490989391989391989390
989390989490989390989390989491999390989390989391989391
989390989390989490989390989390989491989390989390989391
989390989390989390989390989390989390979390989390989390
989390989390989390989390989390989390979390979390989390
97939097939097938f97939097939097939097938f979390979390
97939097939097939097939097939097939097939097938f979390
97939097939097939097939097939097939097939097939097938f
979390979390979390979290979390979390979390979390979390
979290979390979390979390979290979390979390979390979390
979290979290979390979290979390979290979390979390979390
979290979290979290979290979290979390979290979390979390
96928f979290979290969290979290979290979290979290979390
97929096928f979290989390969290979290989390979290979290
95918f97929096928f989390989390969290989390989390979290
938e8e95918f979290979290989390989390979390989390989390
8f8b8c938e8e95918f97928f979290989390979390979390989390
8c898b8f8b8c938e8e96918f97928f979290979390979390979390
89878a8c898b8f8b8c95918f96918f97928f979390979390979390
88878989878a8c898b94908f95918f96918f979390979390979390
88878988878989878a94908f94908f95918f979390979390979390
88888a88878988878994918f94908f94908f979390979390979390
8b8a8c88888a88878995918f94918f94908f979390979390979390
8f8c8e8b8a8c88888a96929095918f94918f989390979390979390
928f908f8c8e8b8a8c97939096929095918f989390989390979390
959291928f908f8c8e989390979390969290989390989390989390
979391959291928f90989391989390979390989390989390989390
989390979391959291989390989391989390989490989390989390
989390989390979391989390989390989391989490989490989390
989390989390989390989390989390989390999390989490989490
989390989390989390989490989390989390989491999390989490
989390989390989390989390989490989390989390989491999390
979390989390989390989390989390989490989390989390989491
979390979390989390989390989390989390989390989390989390
989390979390979390989390989390989390989390989390989390
97939097939097939097939097939097938f979390979390979390
97938f979390979390979390979390979390979390979390979390
97928f97938f979390979390979390979390979390979390979390
97929097928f97938f979390979390979390979290979390979390
97929097929097928f979290979390979390979390979290979390
97928f979290979290979290979290979390979290979390979290
96918f97928f979290979290979290979290979290979290979390
95908f96918f97928f96928f979290979290969290979290979290
928d8d95908f96918f97929096928f979290989390969290979290
8c898a928d8d95908f95918f97929096928f989390989390969290
8785888c898a928d8d938e8e95918f979290979290989390989390
8483888785888c898a8f8b8c938e8e95918f97928f979290989390
8483888483888785888c898b8f8b8c938e8e96918f97928f979290
83838884838884838889878a8c898b8f8b8c95918f96918f97928f
83838883838884838888878989878a8c898b94908f95918f96918f
83838983838883838888878988878989878a94908f94908f95918f
83838983838983838888888a88878988878994918f94908f94908f
8483898383898383898b8a8c88888a88878995918f94918f94908f
8483898483898383898f8c8e8b8a8c88888a96929095918f94918f
86858a848389848389928f908f8c8e8b8a8c97939096929095918f
898a8c86858a848389959291928f908f8c8e989390979390969290
918f8f898a8c86858a979391959291928f90989391989390979390
969291918f8f898a8c989390979391959291989390989391989390
979390969291918f8f989390989390979391989390989390989391
989390979390969291989390989390989390989390989390989390
989390989390979390989390989390989390989490989390989390
979390989390989390989390989390989390989390989490989390
989390979390989390979390989390989390989390989390989490
989390989390979390979390979390989390989390989390989390
989390989390989390989390979390979390989390989390989390
97939097938f97929097939097939097939097939097939097938f
97939097939097938f97938f979390979390979390979390979390
97928f97939097939097928f97938f979390979390979390979390
97939097928f97939097929097928f97938f979390979390979390
97929097939097928f97929097929097928f979290979390979390
97928f97929097939097928f979290979290979290979290979390
948f8d97928f97929096918f97928f979290979290979290979290
8f8b8b948f8d97928f95908f96918f97928f96928f979290979290
8886898f8b8b948f8d928d8d95908f96918f97929096928f979290
8583888886898f8b8b8c898a928d8d95908f95918f97929096928f
8383888583888886898785888c898a928d8d938e8e95918f979290
8383888383888583888483888785888c898a8f8b8c938e8e95918f
8383888383888383888483888483888785888c898b8f8b8c938e8e
84838883838883838883838884838884838889878a8c898b8f8b8c
84838884838883838883838883838884838888878989878a8c898b
84838884838884838883838983838883838888878988878989878a
84838884838884838883838983838983838888888a888789888789
8383888483888483888483898383898383898b8a8c88888a888789
8383888383888483888483898483898383898f8c8e8b8a8c88888a
83838883838883838886858a848389848389928f908f8c8e8b8a8c
838488838388838388898a8c86858a848389959291928f908f8c8e
87888a838488838388918f8f898a8c86858a979391959291928f90
8e8d8e87888a838488969291918f8f898a8c989390979391959291
9592908e8d8e87888a979390969291918f8f989390989390979391
9793919592908e8d8e989390979390969291989390989390989390
989390979391959290989390989390979390989390989390989390
979390989390979391979390989390989390989390989390989390
989390979390989390989390979390989390979390989390989390
989390989390979390989390989390979390979390979390989390
989390989390989390989390989390989390989390979390979390
97938f97939097928f97939097938f979290979390979390979390
97938f97938f97939097939097939097938f97938f979390979390
97938f97938f97938f97928f97939097939097928f97938f979390
97939097938f97938f97939097928f97939097929097928f97938f
97928f97939097938f97929097939097928f97929097929097928f
958f8e97928f97939097928f97929097939097928f979290979290
8e8a8a958f8e97928f948f8d97928f97929096918f97928f979290
8785888e8a8a958f8e8f8b8b948f8d97928f95908f96918f97928f
8483888785888e8a8a8886898f8b8b948f8d928d8d95908f96918f
8383888483888785888583888886898f8b8b8c898a928d8d95908f
8484898383888483888383888583888886898785888c898a928d8d
86868a8484898383888383888383888583888483888785888c898a
8a898b86868a848489838388838388838388848388848388878588
8d8b8d8a898b86868a848388838388838388838388848388848388
8f8c8e8d8b8d8a898b848388848388838388838388838388848388
8f8c8d8f8c8e8d8b8d848388848388848388838389838388838388
8d8a8c8f8c8d8f8c8e848388848388848388838389838389838388
8b888b8d8a8c8f8c8d838388848388848388848389838389838389
8785898b888b8d8a8c838388838388848388848389848389838389
8383888785898b888b83838883838883838886858a848389848389
838288838388878589838488838388838388898a8c86858a848389
82838883828883838887888a838488838388918f8f898a8c86858a
86868a8283888382888e8d8e87888a838488969291918f8f898a8c
8d8c8e86868a8283889592908e8d8e87888a979390969291918f8f
9491918d8c8e86868a9793919592908e8d8e989390979390969291
9793919491918d8c8e989390979391959290989390989390979390
979390979391949191979390989390979391979390989390989390
989390979390979391989390979390989390989390979390989390
989390989390979390989390989390979390989390989390979390
989390989390989390989390989390989390989390989390989390
97929097938f97928f97938f97939097928f97939097938f979290
97929097929097938f97938f97938f97939097939097939097938f
97928f97929097929097938f97938f97938f97928f979390979390
97928f97928f97929097939097938f97938f97939097928f979390
96908e97928f97928f97928f97939097938f97929097939097928f
8f8a8a96908e97928f958f8e97928f97939097928f979290979390
8785888f8a8a96908e8e8a8a958f8e97928f948f8d97928f979290
8383888785888f8a8a8785888e8a8a958f8e8f8b8b948f8d97928f
8383898383888785888483888785888e8a8a8886898f8b8b948f8d
86868b8383898383888383888483888785888583888886898f8b8b
8c8b8d86868b838389848489838388848388838388858388888689
918f8f8c8b8d86868b86868a848489838388838388838388858388
959290918f8f8c8b8d8a898b86868a848489838388838388838388
979291959290918f8f8d8b8d8a898b86868a848388838388838388
9793919792919592908f8c8e8d8b8d8a898b848388848388838388
9793919793919792918f8c8d8f8c8e8d8b8d848388848388848388
9893919793919793918d8a8c8f8c8d8f8c8e848388848388848388
9792909893919793918b888b8d8a8c8f8c8d838388848388848388
938f8e9792909893918785898b888b8d8a8c838388838388848388
8d8a8b938f8e9792908383888785898b888b838388838388838388
8785888d8a8b938f8e838288838388878589838488838388838388
8383888785888d8a8b82838883828883838887888a838488838388
82838883838887858886868a8283888382888e8d8e87888a838488
85868b8283888383888d8c8e86868a8283889592908e8d8e87888a
8d8c8e85868b8283889491918d8c8e86868a9793919592908e8d8e
9592908d8c8e85868b9793919491918d8c8e989390979391959290
9793909592908d8c8e979390979391949191979390989390979391
989390979390959290989390979390979391989390979390989390
979390989390979390989390989390979390989390989390979390
989390979390989390989390989390989390989390989390989390
97929097938f97939097929097938f97928f97938f97939097928f
97928f97929097938f97929097929097938f97938f97938f979390
97928f97928f97929097928f97929097929097938f97938f97938f
96918e97928f97928f97928f97928f97929097939097938f97938f
918c8c96918e97928f96908e97928f97928f97928f97939097938f
888688918c8c96918e8f8a8a96908e97928f958f8e97928f979390
848388888688918c8c8785888f8a8a96908e8e8a8a958f8e97928f
8384888483888886888383888785888f8a8a8785888e8a8a958f8e
87888c8384888483888383898383888785888483888785888e8a8a
8e8d8f87888c83848886868b838389838388838388848388878588
9491908e8d8f87888c8c8b8d86868b838389848489838388848388
9792909491908e8d8f918f8f8c8b8d86868b86868a848489838388
979390979290949190959290918f8f8c8b8d8a898b86868a848489
989390979390979290979291959290918f8f8d8b8d8a898b86868a
9793909893909793909793919792919592908f8c8e8d8b8d8a898b
9793909793909893909793919793919792918f8c8d8f8c8e8d8b8d
9793909793909793909893919793919793918d8a8c8f8c8d8f8c8e
9893919793909793909792909893919793918b888b8d8a8c8f8c8d
989390989391979390938f8e9792909893918785898b888b8d8a8c
9791909893909893918d8a8b938f8e9792908383888785898b888b
908c8c9791909893908785888d8a8b938f8e838288838388878589
888688908c8c9791908383888785888d8a8b828388838288838388
848388888688908c8c82838883838887858886868a828388838288
83838984838888868885868b8283888383888d8c8e86868a828388
86878b8383898483888d8c8e85868b8283889491918d8c8e86868a
908f9086878b8383899592908d8c8e85868b9793919491918d8c8e
969290908f9086878b9793909592908d8c8e979390979391949191
989390969290908f90989390979390959290989390979390979391
979390989390969290979390989390979390989390989390979390
979390979390989390989390979390989390989390989390989390
97929097939097939097929097938f97939097929097938f97928f
97928f97929097939097928f97929097938f97929097929097938f
96928f97928f97929097928f97928f97929097928f979290979290
948e8d96928f97928f96918e97928f97928f97928f97928f979290
8c888a948e8d96928f918c8c96918e97928f96908e97928f97928f
8583888c888a948e8d888688918c8c96918e8f8a8a96908e97928f
8383898583888c888a848388888688918c8c8785888f8a8a96908e
86878b8383898583888384888483888886888383888785888f8a8a
8e8d8f86878b83838987888c838488848388838389838388878588
9491908e8d8f86878b8e8d8f87888c83848886868b838389838388
9792909491908e8d8f9491908e8d8f87888c8c8b8d86868b838389
9793909792909491909792909491908e8d8f918f8f8c8b8d86868b
979390979390979290979390979290949190959290918f8f8c8b8d
979390979390979390989390979390979290979291959290918f8f
979390979390979390979390989390979390979391979291959290
989390979390979390979390979390989390979391979391979291
989391989390979390979390979390979390989391979391979391
989391989391989390989391979390979390979290989391979391
989390989391989391989390989391979390938f8e979290989391
9893919893909893919791909893909893918d8a8b938f8e979290
97918f989391989390908c8c9791909893908785888d8a8b938f8e
918c8c97918f989391888688908c8c9791908383888785888d8a8b
888588918c8c97918f848388888688908c8c828388838388878588
838388888588918c8c83838984838888868885868b828388838388
84848983838888858886878b8383898483888d8c8e85868b828388
8a8b8d848489838388908f9086878b8383899592908d8c8e85868b
9491908a8b8d848489969290908f9086878b9793909592908d8c8e
9793909491908a8b8d989390969290908f90989390979390959290
979390979390949190979390989390969290979390989390979390
979390979390979390979390979390989390989390979390989390
97929097929097939097929097939097939097929097938f979390
97928f97929097929097928f97929097939097928f97929097938f
96918e97928f97929096928f97928f97929097928f97928f979290
908b8b96918e97928f948e8d96928f97928f96918e97928f97928f
878588908b8b96918e8c888a948e8d96928f918c8c96918e97928f
838388878588908b8b8583888c888a948e8d888688918c8c96918e
85868b8383888785888383898583888c888a848388888688918c8c
8c8c8e85868b83838886878b838389858388838488848388888688
9491908c8c8e85868b8e8d8f86878b83838987888c838488848388
9692909491908c8c8e9491908e8d8f86878b8e8d8f87888c838488
9793909692909491909792909491908e8d8f9491908e8d8f87888c
97938f9793909692909793909792909491909792909491908e8d8f
96928f97938f979390979390979390979290979390979290949190
96928f96928f97938f979390979390979390989390979390979290
97928f96928f96928f979390979390979390979390989390979390
97928f97928f96928f989390979390979390979390979390989390
97939097928f97928f989391989390979390979390979390979390
97939097939097928f989391989391989390989391979390979390
979390979390979390989390989391989391989390989391979390
979390979390979390989391989390989391979190989390989391
98939097939097939097918f989391989390908c8c979190989390
97918f989390979390918c8c97918f989391888688908c8c979190
8f8a8a97918f989390888588918c8c97918f848388888688908c8c
8684888f8a8a97918f838388888588918c8c838389848388888688
8383898684888f8a8a84848983838888858886878b838389848388
85868a8383898684888a8b8d848489838388908f9086878b838389
908f8f85868a8383899491908a8b8d848489969290908f9086878b
969290908f8f85868a9793909491908a8b8d989390969290908f90
979390969290908f8f979390979390949190979390989390969290
979390979390969290979390979390979390979390979390989390
97928f979390979390979290979290979390979290979390979390
97928f97928f97939097928f97929097929097928f979290979390
958f8d97928f97928f96918e97928f97929096928f97928f979290
8c8889958f8d97928f908b8b96918e97928f948e8d96928f97928f
8583888c8889958f8d878588908b8b96918e8c888a948e8d96928f
8384898583888c8889838388878588908b8b8583888c888a948e8d
88898d83848985838885868b8383888785888383898583888c888a
918f9088898d8384898c8c8e85868b83838886878b838389858388
969290918f9088898d9491908c8c8e85868b8e8d8f86878b838389
97938f969290918f909692909491908c8c8e9491908e8d8f86878b
97928f97938f9692909793909692909491909792909491908e8d8f
96918e97928f97938f97938f979390969290979390979290949190
928e8b96918e97928f96928f97938f979390979390979390979290
8d8c89928e8b96918e96928f96928f97938f979390979390979390
8d8b898d8c89928e8b97928f96928f96928f979390979390979390
8e8c8a8d8b898d8c8997928f97928f96928f989390979390979390
8f8c8a8e8c8a8d8b8997939097928f97928f989391989390979390
908d8b8f8c8a8e8c8a97939097939097928f989391989391989390
918d8b908d8b8f8c8a979390979390979390989390989391989391
918e8c918d8b908d8b979390979390979390989391989390989391
928f8d918e8c918d8b98939097939097939097918f989391989390
938f8e928f8d918e8c97918f989390979390918c8c97918f989391
928d8d938f8e928f8d8f8a8a97918f989390888588918c8c97918f
8a8689928d8d938f8e8684888f8a8a97918f838388888588918c8c
8483888a8689928d8d8383898684888f8a8a848489838388888588
8484898483888a868985868a8383898684888a8b8d848489838388
8c8c8e848489848388908f8f85868a8383899491908a8b8d848489
9491908c8c8e848489969290908f8f85868a9793909491908a8b8d
9793909491908c8c8e979390969290908f8f979390979390949190
979390979390949190979390979390969290979390979390979390
97928f97939097939097928f979390979390979290979290979390
96928e97928f97939097928f97928f97939097928f979290979290
938e8c96928e97928f958f8d97928f97928f96918e97928f979290
898688938e8c96928e8c8889958f8d97928f908b8b96918e97928f
848388898688938e8c8583888c8889958f8d878588908b8b96918e
84858a8483888986888384898583888c8889838388878588908b8b
8c8c8d84858a84838888898d83848985838885868b838388878588
93908f8c8c8d84858a918f9088898d8384898c8c8e85868b838388
94908d93908f8c8c8d969290918f9088898d9491908c8c8e85868b
918e8c94908d93908f97938f969290918f909692909491908c8c8e
908e8b918e8c94908d97928f97938f969290979390969290949190
8f8d8a908e8b918e8c96918e97928f97938f97938f979390969290
8c8a868f8d8a908e8b928e8b96918e97928f96928f97938f979390
8584828c8a868f8d8a8d8c89928e8b96918e96928f96928f97938f
8483838584828c8a868d8b898d8c89928e8b97928f96928f96928f
8583838483838584828e8c8a8d8b898d8c8997928f97928f96928f
8583838583838483838f8c8a8e8c8a8d8b8997939097928f97928f
858483858383858383908d8b8f8c8a8e8c8a97939097939097928f
858483858483858383918d8b908d8b8f8c8a979390979390979390
868483858483858483918e8c918d8b908d8b979390979390979390
868585868483858483928f8d918e8c918d8b989390979390979390
888788868585868483938f8e928f8d918e8c97918f989390979390
908d8c888788868585928d8d938f8e928f8d8f8a8a97918f989390
8c888a908d8c8887888a8689928d8d938f8e8684888f8a8a97918f
8583888c888a908d8c8483888a8689928d8d8383898684888f8a8a
8383898583888c888a8484898483888a868985868a838389868488
898a8d8383898583888c8c8e848489848388908f8f85868a838389
929190898a8d8383899491908c8c8e848489969290908f8f85868a
979390929190898a8d9793909491908c8c8e979390969290908f8f
979390979390929190979390979390949190979390979390969290
97929097929097929097928f97939097939097928f979390979390
96928f97929097929096928e97928f97939097928f97928f979390
928c8c96928f979290938e8c96928e97928f958f8d97928f97928f
888588928c8c96928f898688938e8c96928e8c8889958f8d97928f
848388888588928c8c848388898688938e8c8583888c8889958f8d
86868b84838888858884858a8483888986888384898583888c8889
8e8d8e86868b8483888c8c8d84858a84838888898d838489858388
94908e8e8d8e86868b93908f8c8c8d84858a918f9088898d838489
928e8d94908e8e8d8e94908d93908f8c8c8d969290918f9088898d
918c8b928e8d94908e918e8c94908d93908f97938f969290918f90
8c8986918c8b928e8d908e8b918e8c94908d97928f97938f969290
8a88868c8986918c8b8f8d8a908e8b918e8c96918e97928f97938f
8a87848a88868c89868c8a868f8d8a908e8b928e8b96918e97928f
8583818a87848a88868584828c8a868f8d8a8d8c89928e8b96918e
8382828583818a87848483838584828c8a868d8b898d8c89928e8b
8382828382828583818583838483838584828e8c8a8d8b898d8c89
8383828382828382828583838583838483838f8c8a8e8c8a8d8b89
838382838382838282858483858383858383908d8b8f8c8a8e8c8a
838382838382838382858483858483858383918d8b908d8b8f8c8a
838282838382838382868483858483858483918e8c918d8b908d8b
838283838282838382868585868483858483928f8d918e8c918d8b
848587838283838282888788868585868483938f8e928f8d918e8c
8e8d8d848587838283908d8c888788868585928d8d938f8e928f8d
8e8a8b8e8d8d8485878c888a908d8c8887888a8689928d8d938f8e
8684888e8a8b8e8d8d8583888c888a908d8c8483888a8689928d8d
8383898684888e8a8b8383898583888c888a8484898483888a8689
87888c838389868488898a8d8383898583888c8c8e848489848388
91908f87888c838389929190898a8d8383899491908c8c8e848489
96939091908f87888c979390929190898a8d9793909491908c8c8e
97939096939091908f979390979390929190979390979390949190
96928f97929097929097929097929097929097928f979390979390
96918f96928f97929096928f97929097929096928e97928f979390
908b8b96918f96928f928c8c96928f979290938e8c96928e97928f
868488908b8b96918f888588928c8c96928f898688938e8c96928e
838388868488908b8b848388888588928c8c848388898688938e8c
87878b83838886848886868b84838888858884858a848388898688
8f8e8d87878b8383888e8d8e86868b8483888c8c8d84858a848388
928f8c8f8e8d87878b94908e8e8d8e86868b93908f8c8c8d84858a
908e8b928f8c8f8e8d928e8d94908e8e8d8e94908d93908f8c8c8d
918d8b908e8b928f8c918c8b928e8d94908e918e8c94908d93908f
8c8887918d8b908e8b8c8986918c8b928e8d908e8b918e8c94908d
8a88868c8887918d8b8a88868c8986918c8b8f8d8a908e8b918e8c
8986848a88868c88878a87848a88868c89868c8a868f8d8a908e8b
8483818986848a88868583818a87848a88868584828c8a868f8d8a
8382828483818986848382828583818a87848483838584828c8a86
838282838282848381838282838282858381858383848383858482
848382838282838282838382838282838282858383858383848383
838382848382838282838382838382838282858483858383858383
838382838382848382838382838382838382858483858483858383
838282838382838382838282838382838382868483858483858483
838283838282838382838283838282838382868585868483858483
858688838283838282848587838283838282888788868585868483
8f8d8e8586888382838e8d8d848587838283908d8c888788868585
908b8c8f8d8e8586888e8a8b8e8d8d8485878c888a908d8c888788
888488908b8c8f8d8e8684888e8a8b8e8d8d8583888c888a908d8c
838389888488908b8c8383898684888e8a8b8383898583888c888a
86878b83838988848887888c838389868488898a8d838389858388
908f8f86878b83838991908f87888c838389929190898a8d838389
969290908f8f86878b96939091908f87888c979390929190898a8d
989390969290908f8f97939096939091908f979390979390929190
96928f97928f97928f96928f979290979290979290979290979290
96918e96928f97928f96918f96928f97929096928f979290979290
908b8b96918e96928f908b8b96918f96928f928c8c96928f979290
868488908b8b96918e868488908b8b96918f888588928c8c96928f
838388868488908b8b838388868488908b8b848388888588928c8c
87888b83838886848887878b83838886848886868b848388888588
8f8e8c87888b8383888f8e8d87878b8383888e8d8e86868b848388
8f8c888f8e8c87888b928f8c8f8e8d87878b94908e8e8d8e86868b
8886848f8c888f8e8c908e8b928f8c8f8e8d928e8d94908e8e8d8e
8785848886848f8c88918d8b908e8b928f8c918c8b928e8d94908e
8685848785848886848c8887918d8b908e8b8c8986918c8b928e8d
8987878685848785848a88868c8887918d8b8a88868c8986918c8b
8987848987878685848986848a88868c88878a87848a88868c8986
8584818987848987878483818986848a88868583818a87848a8886
8483828584818987848382828483818986848382828583818a8784
848382848382858481838282838282848381838282838282858381
848383848382848382848382838282838282838382838282838282
848383848383848382838382848382838282838382838382838282
848383848383848383838382838382848382838382838382838382
848382848383848383838282838382838382838282838382838382
838383848382848383838283838282838382838283838282838382
858688838383848382858688838283838282848587838283838282
8f8e8e8586888383838f8d8e8586888382838e8d8d848587838283
908c8c8f8e8e858688908b8c8f8d8e8586888e8a8b8e8d8d848587
888588908c8c8f8e8e888488908b8c8f8d8e8684888e8a8b8e8d8d
838389888588908c8c838389888488908b8c8383898684888e8a8b
86878b83838988858886878b83838988848887888c838389868488
908f8f86878b838389908f8f86878b83838991908f87888c838389
969290908f8f86878b969290908f8f86878b96939091908f87888c
989390969290908f8f989390969290908f8f97939096939091908f
97928f97928f97928f96928f97928f97928f96928f979290979290
96918e97928f97928f96918e96928f97928f96918f96928f979290
918b8b96918e97928f908b8b96918e96928f908b8b96918f96928f
868488918b8b96918e868488908b8b96918e868488908b8b96918f
838388868488918b8b838388868488908b8b838388868488908b8b
87878b83838886848887888b83838886848887878b838388868488
8f8d8b87878b8383888f8e8c87888b8383888f8e8d87878b838388
908b878f8d8b87878b8f8c888f8e8c87888b928f8c8f8e8d87878b
898683908b878f8d8b8886848f8c888f8e8c908e8b928f8c8f8e8d
888685898683908b878785848886848f8c88918d8b908e8b928f8c
8786858886858986838685848785848886848c8887918d8b908e8b
8886858786858886858987878685848785848a88868c8887918d8b
8b87858886858786858987848987878685848986848a88868c8887
8a87868b87858886858584818987848987878483818986848a8886
8987868a87868b8785848382858481898784838282848381898684
8987868987868a8786848382848382858481838282838282848381
898786898786898786848383848382848382848382838282838282
898786898786898786848383848383848382838382848382838282
898786898786898786848383848383848383838382838382848382
888786898786898786848382848383848383838282838382838382
878686888786898786838383848382848383838283838282838382
898989878686888786858688838383848382858688838283838282
918e8e8989898786868f8e8e8586888383838f8d8e858688838283
8f8b8b918e8e898989908c8c8f8e8e858688908b8c8f8d8e858688
8784888f8b8b918e8e888588908c8c8f8e8e888488908b8c8f8d8e
8383898784888f8b8b838389888588908c8c838389888488908b8c
87888c83838987848886878b83838988858886878b838389888488
918f8f87888c838389908f8f86878b838389908f8f86878b838389
969290918f8f87888c969290908f8f86878b969290908f8f86878b
979290969290918f8f989390969290908f8f989390969290908f8f
97928f97928f97928f97928f97928f97928f96928f97928f97928f
96928f97928f97928f96918e97928f97928f96918e96928f97928f
928c8b96928f97928f918b8b96918e97928f908b8b96918e96928f
888588928c8b96928f868488918b8b96918e868488908b8b96918e
848388888588928c8b838388868488918b8b838388868488908b8b
86868b84838888858887878b83838886848887888b838388868488
8e8d8d86868b8483888f8d8b87878b8383888f8e8c87888b838388
928d8a8e8d8d86868b908b878f8d8b87878b8f8c888f8e8c87888b
8b8884928d8a8e8d8d898683908b878f8d8b8886848f8c888f8e8c
8685848b8884928d8a888685898683908b878785848886848f8c88
8887888685848b8884878685888685898683868584878584888684
8b8988888788868584888685878685888685898787868584878584
8a88868b89888887888b8785888685878685898784898787868584
8a87868a88868b89888a87868b8785888685858481898784898787
8987858a87868a88868987868a87868b8785848382858481898784
8887858987858a87868987868987868a8786848382848382858481
898785888785898785898786898786898786848383848382848382
888684898785888785898786898786898786848383848383848382
878685888684898785898786898786898786848383848383848383
888786878685888684888786898786898786848382848383848383
898887888786878685878686888786898786838383848382848383
8a8a8a898887888786898989878686888786858688838383848382
918e8e8a8a8a898887918e8e8989898786868f8e8e858688838383
8e898b918e8e8a8a8a8f8b8b918e8e898989908c8c8f8e8e858688
8684888e898b918e8e8784888f8b8b918e8e888588908c8c8f8e8e
8483898684888e898b8383898784888f8b8b838389888588908c8c
89898c84838986848887888c83838987848886878b838389888588
92918f89898c848389918f8f87888c838389908f8f86878b838389
97939092918f89898c969290918f8f87888c969290908f8f86878b
97939097939092918f979290969290918f8f989390969290908f8f
97928f97928f96928f97928f97928f97928f97928f97928f97928f
96928f97928f97928f96928f97928f97928f96918e97928f97928f
938e8c96928f97928f928c8b96928f97928f918b8b96918e97928f
898688938e8c96928f888588928c8b96928f868488918b8b96918e
848388898688938e8c848388888588928c8b838388868488918b8b
84858a84838889868886868b84838888858887878b838388868488
8c8c8e84858a8483888e8d8d86868b8483888f8d8b87878b838388
93908e8c8c8e84858a928d8a8e8d8d86868b908b878f8d8b87878b
918c8993908e8c8c8e8b8884928d8a8e8d8d898683908b878f8d8b
8d8a88918c8993908e8685848b8884928d8a888685898683908b87
908d8d8d8a88918c898887888685848b8884878685888685898683
94918f908d8d8d8a888b8988888788868584888685878685888685
95918f94918f908d8d8a88868b89888887888b8785888685878685
95918f95918f94918f8a87868a88868b89888a87868b8785888685
94918e95918f95918f8987858a87868a88868987868a87868b8785
94918e94918e95918f8887858987858a87868987868987868a8786
938e8c94918e94918e898785888785898785898786898786898786
8d8a87938e8c94918e888684898785888785898786898786898786
8887868d8a87938e8c878685888684898785898786898786898786
8a8a8a8887868d8a87888786878685888684888786898786898786
918e8e8a8a8a888786898887888786878685878686888786898786
93908e918e8e8a8a8a8a8a8a898887888786898989878686888786
938e8d93908e918e8e918e8e8a8a8a898887918e8e898989878686
8b8789938e8d93908e8e898b918e8e8a8a8a8f8b8b918e8e898989
8483888b8789938e8d8684888e898b918e8e8784888f8b8b918e8e
8484898483888b87898483898684888e898b8383898784888f8b8b
8b8b8d84848984838889898c84838986848887888c838389878488
94918f8b8b8d84848992918f89898c848389918f8f87888c838389
97929094918f8b8b8d97939092918f89898c969290918f8f87888c
97939097929094918f97939097939092918f979290969290918f8f
96928f96928f97928f97928f97928f96928f97928f97928f97928f
96928f96928f96928f96928f97928f97928f96928f97928f97928f
948f8d96928f96928f938e8c96928f97928f928c8b96928f97928f
8c8889948f8d96928f898688938e8c96928f888588928c8b96928f
8583888c8889948f8d848388898688938e8c848388888588928c8b
8383898583888c888984858a84838889868886868b848388888588
88888c8383898583888c8c8e84858a8483888e8d8d86868b848388
918f9088888c83838993908e8c8c8e84858a928d8a8e8d8d86868b
96928f918f9088888c918c8993908e8c8c8e8b8884928d8a8e8d8d
96918f96928f918f908d8a88918c8993908e8685848b8884928d8a
96929096918f96928f908d8d8d8a88918c898887888685848b8884
97939096929096918f94918f908d8d8d8a888b8988888788868584
97939097939096929095918f94918f908d8d8a88868b8988888788
97939097939097939095918f95918f94918f8a87868a88868b8988
97939097939097939094918e95918f95918f8987858a87868a8886
97939097939097939094918e94918e95918f8887858987858a8786
989290979390979390938e8c94918e94918e898785888785898785
95918e9892909793908d8a87938e8c94918e888684898785888785
92908d95918e9892908887868d8a87938e8c878685888684898785
93918f92908d95918e8a8a8a8887868d8a87888786878685888684
96929093918f92908d918e8e8a8a8a888786898887888786878685
97918f96929093918f93908e918e8e8a8a8a8a8a8a898887888786
908b8b97918f969290938e8d93908e918e8e918e8e8a8a8a898887
878488908b8b97918f8b8789938e8d93908e8e898b918e8e8a8a8a
838388878488908b8b8483888b8789938e8d8684888e898b918e8e
85868a8383888784888484898483888b87898483898684888e898b
8f8e8f85868a8383888b8b8d84848984838889898c848389868488
9592908f8e8f85868a94918f8b8b8d84848992918f89898c848389
9793909592908f8e8f97929094918f8b8b8d97939092918f89898c
97939097939095929097939097929094918f97939097939092918f
96928f96928f97928f96928f96928f97928f97928f97928f96928f
96928f96928f96928f96928f96928f96928f96928f97928f97928f
96918e96928f96928f948f8d96928f96928f938e8c96928f97928f
908b8b96918e96928f8c8889948f8d96928f898688938e8c96928f
888588908b8b96918e8583888c8889948f8d848388898688938e8c
838388888588908b8b8383898583888c888984858a848388898688
84858a83838888858888888c8383898583888c8c8e84858a848388
8a8a8d84858a838388918f9088888c83838993908e8c8c8e84858a
9391908a8a8d84858a96928f918f9088888c918c8993908e8c8c8e
9692909391908a8a8d96918f96928f918f908d8a88918c8993908e
97939096929093919096929096918f96928f908d8d8d8a88918c89
97939097939096929097939096929096918f94918f908d8d8d8a88
97939097939097939097939097939096929095918f94918f908d8d
97939097939097939097939097939097939095918f95918f94918f
97939097939097939097939097939097939094918e95918f95918f
97939097939097939097939097939097939094918e94918e95918f
979390979390979390989290979390979390938e8c94918e94918e
97929097939097939095918e9892909793908d8a87938e8c94918e
97929097929097939092908d95918e9892908887868d8a87938e8c
97929097929097929093918f92908d95918e8a8a8a8887868d8a87
97918f97929097929096929093918f92908d918e8e8a8a8a888786
938d8d97918f97929097918f96929093918f93908e918e8e8a8a8a
8a8789938d8d97918f908b8b97918f969290938e8d93908e918e8e
8483888a8789938d8d878488908b8b97918f8b8789938e8d93908e
8384898483888a8789838388878488908b8b8483888b8789938e8d
88898c83848984838885868a8383888784888484898483888b8789
92909088898c8384898f8e8f85868a8383888b8b8d848489848388
96929092909088898c9592908f8e8f85868a94918f8b8b8d848489
9793909692909290909793909592908f8e8f97929094918f8b8b8d
97929097939096929097939097939095929097939097929094918f
96928f97928f97928f96928f96928f97928f96928f96928f97928f
97928f96928f97928f96928f96928f96928f96928f96928f96928f
96918f97928f96928f96918e96928f96928f948f8d96928f96928f
948e8d96918f97928f908b8b96918e96928f8c8889948f8d96928f
8b8889948e8d96918f888588908b8b96918e8583888c8889948f8d
8483888b8889948e8d838388888588908b8b8383898583888c8889
8383888483888b888984858a83838888858888888c838389858388
85868a8383888483888a8a8d84858a838388918f9088888c838389
8e8c8e85868a8383889391908a8a8d84858a96928f918f9088888c
9491908e8c8e85868a9692909391908a8a8d96918f96928f918f90
9792909491908e8c8e97939096929093919096929096918f96928f
97939097929094919097939097939096929097939096929096918f
979390979390979290979390979390979390979390979390969290
979390979390979390979390979390979390979390979390979390
979390979390979390979390979390979390979390979390979390
979390979390979390979390979390979390979390979390979390
979290979390979390979390979390979390989290979390979390
97929097929097939097929097939097939095918e989290979390
97929097929097929097929097929097939092908d95918e989290
97919097929097929097929097929097929093918f92908d95918e
938e8d97919097929097918f97929097929096929093918f92908d
8c888a938e8d979190938d8d97918f97929097918f96929093918f
8584888c888a938e8d8a8789938d8d97918f908b8b97918f969290
8383888584888c888a8483888a8789938d8d878488908b8b97918f
85868a8383888584888384898483888a8789838388878488908b8b
8d8d8e85868a83838888898c83848984838885868a838388878488
9591908d8d8e85868a92909088898c8384898f8e8f85868a838388
9792909591908d8d8e96929092909088898c9592908f8e8f85868a
97938f9792909591909793909692909290909793909592908f8e8f
97939097938f979290979290979390969290979390979390959290
97928f97928f97928f96928f97928f97928f96928f96928f97928f
97928f97928f97928f97928f96928f97928f96928f96928f96928f
96928f97928f97928f96918f97928f96928f96918e96928f96928f
95918e96928f97928f948e8d96918f97928f908b8b96918e96928f
918d8b95918e96928f8b8889948e8d96918f888588908b8b96918e
888688918d8b95918e8483888b8889948e8d838388888588908b8b
838388888688918d8b8383888483888b888984858a838388888588
83838883838888868885868a8383888483888a8a8d84858a838388
85868a8383888383888e8c8e85868a8383889391908a8a8d84858a
8d8b8d85868a8383889491908e8c8e85868a9692909391908a8a8d
9390908d8b8d85868a9792909491908e8c8e979390969290939190
9692909390908d8b8d979390979290949190979390979390969290
969290969290939090979390979390979290979390979390979390
979390969290969290979390979390979390979390979390979390
979390979390969290979390979390979390979390979390979390
979390979390979390979390979390979390979390979390979390
979290979390979390979290979390979390979390979390979390
96928f979290979390979290979290979390979290979390979390
95918f96928f979290979290979290979290979290979290979390
928d8d95918f96928f979190979290979290979290979290979290
8b8789928d8d95918f938e8d97919097929097918f979290979290
8584888b8789928d8d8c888a938e8d979190938d8d97918f979290
8383888584888b87898584888c888a938e8d8a8789938d8d97918f
8485898383888584888383888584888c888a8483888a8789938d8d
8a8a8c84858983838885868a8383888584888384898483888a8789
9290908a8a8c8485898d8d8e85868a83838888898c838489848388
9692909290908a8a8c9591908d8d8e85868a92909088898c838489
9792909692909290909792909591908d8d8e96929092909088898c
97939097929096929097938f979290959190979390969290929090
97939097939097929097939097938f979290979290979390969290
97929096928f97928f97928f97928f97928f96928f97928f97928f
97929097929096928f97928f97928f97928f97928f96928f97928f
96928f97929097929096928f97928f97928f96918f97928f96928f
96918f96928f97929095918e96928f97928f948e8d96918f97928f
95908e96918f96928f918d8b95918e96928f8b8889948e8d96918f
8f8b8b95908e96918f888688918d8b95918e8483888b8889948e8d
8785888f8b8b95908e838388888688918d8b8383888483888b8889
8483878785888f8b8b83838883838888868885868a838388848388
83838884838787858885868a8383888383888e8c8e85868a838388
8484888383888483878d8b8d85868a8383889491908e8c8e85868a
87878a8484888383889390908d8b8d85868a9792909491908e8c8e
8d8c8d87878a8484889692909390908d8b8d979390979290949190
938f8f8d8c8d87878a969290969290939090979390979390979290
949190938f8f8d8c8d979390969290969290979390979390979390
959190949190938f8f979390979390969290979390979390979390
959190959190949190979390979390979390979390979390979390
94908f959190959190979290979390979390979290979390979390
918d8d94908f95919096928f979290979390979290979290979390
8c898b918d8d94908f95918f96928f979290979290979290979290
8785888c898b918d8d928d8d95918f96928f979190979290979290
8483878785888c898b8b8789928d8d95918f938e8d979190979290
8383888483878785888584888b8789928d8d8c888a938e8d979190
8484898383888483878383888584888b87898584888c888a938e8d
8a8a8d8484898383888485898383888584888383888584888c888a
918f8f8a8a8d8484898a8a8c84858983838885868a838388858488
969290918f8f8a8a8d9290908a8a8c8485898d8d8e85868a838388
969390969290918f8f9692909290908a8a8c9591908d8d8e85868a
9693909693909692909792909692909290909792909591908d8d8e
97939096939096939097939097929096929097938f979290959190
97939097939096939097939097939097929097939097938f979290
96928f96928f97928f97929096928f97928f97928f97928f97928f
96929096928f96928f97929097929096928f97928f97928f97928f
96928f96929096928f96928f97929097929096928f97928f97928f
96928f96928f96929096918f96928f97929095918e96928f97928f
96918f96928f96928f95908e96918f96928f918d8b95918e96928f
948f8d96918f96928f8f8b8b95908e96918f888688918d8b95918e
8f8b8b948f8d96918f8785888f8b8b95908e838388888688918d8b
8886888f8b8b948f8d8483878785888f8b8b838388838388888688
8483878886888f8b8b83838884838787858885868a838388838388
8383888483878886888484888383888483878d8b8d85868a838388
83838883838884838787878a8484888383889390908d8b8d85868a
8484888383888383888d8c8d87878a8484889692909390908d8b8d
878589848488838388938f8f8d8c8d87878a969290969290939090
88878a878589848488949190938f8f8d8c8d979390969290969290
89878a88878a878589959190949190938f8f979390979390969290
89878a89878a88878a959190959190949190979390979390979390
88868989878a89878a94908f959190959190979290979390979390
86848888868989878a918d8d94908f95919096928f979290979390
8483888684888886898c898b918d8d94908f95918f96928f979290
8383888483888684888785888c898b918d8d928d8d95918f96928f
8383888383888483888483878785888c898b8b8789928d8d95918f
8485898383888383888383888483878785888584888b8789928d8d
8a8a8c8485898383888484898383888483878383888584888b8789
918f908a8a8c8485898a8a8d848489838388848589838388858488
959291918f908a8a8c918f8f8a8a8d8484898a8a8c848589838388
979390959291918f90969290918f8f8a8a8d9290908a8a8c848589
979390979390959291969390969290918f8f9692909290908a8a8c
979390979390979390969390969390969290979290969290929090
979390979390979390979390969390969390979390979290969290
979390979390979390979390979390969390979390979390979290
96928f97928f97928f96928f96928f97928f97929096928f97928f
96928f96928f97928f96929096928f96928f97929097929096928f
96928f96928f96928f96928f96929096928f96928f979290979290
96928f96928f96928f96928f96928f96929096918f96928f979290
96918f96928f96928f96918f96928f96928f95908e96918f96928f
95918e96918f96928f948f8d96918f96928f8f8b8b95908e96918f
94908e95918e96918f8f8b8b948f8d96918f8785888f8b8b95908e
918d8c94908e95918e8886888f8b8b948f8d8483878785888f8b8b
8a8789918d8c94908e8483878886888f8b8b838388848387878588
8584888a8789918d8c838388848387888688848488838388848387
8383878584888a878983838883838884838787878a848488838388
8383888383878584888484888383888383888d8c8d87878a848488
838388838388838387878589848488838388938f8f8d8c8d87878a
83838883838883838888878a878589848488949190938f8f8d8c8d
83838883838883838889878a88878a878589959190949190938f8f
83838883838883838889878a89878a88878a959190959190949190
83838883838883838888868989878a89878a94908f959190959190
83838883838883838886848888868989878a918d8d94908f959190
8383888383888383888483888684888886898c898b918d8d94908f
8383888383888383888383888483888684888785888c898b918d8d
86868a8383888383888383888383888483888483878785888c898b
8c8b8d86868a838388848589838388838388838388848387878588
928f8f8c8b8d86868a8a8a8c848589838388848489838388848387
969290928f8f8c8b8d918f908a8a8c8485898a8a8d848489838388
979390969290928f8f959291918f908a8a8c918f8f8a8a8d848489
979390979390969290979390959291918f90969290918f8f8a8a8d
989390979390979390979390979390959291969390969290918f8f
989390989390979390979390979390979390969390969390969290
979390989390989390979390979390979390979390969390969390
979390979390989390979390979390979390979390979390969390
97928f97928f97928f96928f97928f97928f96928f96928f97928f
96928f97928f97928f96928f96928f97928f96929096928f96928f
96928f96928f97928f96928f96928f96928f96928f96929096928f
96928f96928f96928f96928f96928f96928f96928f96928f969290
96928f96928f96928f96918f96928f96928f96918f96928f96928f
95918f96928f96928f95918e96918f96928f948f8d96918f96928f
95918f95918f96928f94908e95918e96918f8f8b8b948f8d96918f
96918f95918f95918f918d8c94908e95918e8886888f8b8b948f8d
948f8e96918f95918f8a8789918d8c94908e8483878886888f8b8b
8e8c8c948f8e96918f8584888a8789918d8c838388848387888688
8a888a8e8c8c948f8e8383878584888a8789838388838388848387
8785898a888a8e8c8c838388838387858488848488838388838388
8584888785898a888a838388838388838387878589848488838388
84838885848887858983838883838883838888878a878589848488
84838884838885848883838883838883838889878a88878a878589
83838884838884838883838883838883838889878a89878a88878a
84838883838884838883838883838883838888868989878a89878a
85858984838883838883838883838883838886848888868989878a
88878a858589848388838388838388838388848388868488888689
8c8b8c88878a858589838388838388838388838388848388868488
908f8f8c8b8c88878a86868a838388838388838388838388848388
949190908f8f8c8b8c8c8b8d86868a838388848589838388838388
979290949190908f8f928f8f8c8b8d86868a8a8a8c848589838388
979390979290949190969290928f8f8c8b8d918f908a8a8c848589
979390979390979290979390969290928f8f959291918f908a8a8c
979390979390979390979390979390969290979390959291918f90
979390979390979390989390979390979390979390979390959291
979390979390979390989390989390979390979390979390979390
979390979390979390979390989390989390979390979390979390
979390979390979390979390979390989390979390979390979390
96928f97928f97939097928f97928f97928f96928f97928f97928f
96928f96928f97928f96928f97928f97928f96928f96928f97928f
96928f96928f96928f96928f96928f97928f96928f96928f96928f
96928f96928f96928f96928f96928f96928f96928f96928f96928f
96928f96928f96928f96928f96928f96928f96918f96928f96928f
95918f96928f96928f95918f96928f96928f95918e96918f96928f
96928f95918f96928f95918f95918f96928f94908e95918e96918f
96928f96928f95918f96918f95918f95918f918d8c94908e95918e
96928f96928f96928f948f8e96918f95918f8a8789918d8c94908e
95918f96928f96928f8e8c8c948f8e96918f8584888a8789918d8c
95908e95918f96928f8a888a8e8c8c948f8e8383878584888a8789
928e8d95908e95918f8785898a888a8e8c8c838388838387858488
8f8c8c928e8d95908e8584888785898a888a838388838388838387
8d8b8b8f8c8c928e8d848388858488878589838388838388838388
8c8a8b8d8b8b8f8c8c848388848388858488838388838388838388
8c8b8b8c8a8b8d8b8b838388848388848388838388838388838388
8d8c8c8c8b8b8c8a8b848388838388848388838388838388838388
908e8e8d8c8c8c8b8b858589848388838388838388838388838388
92908f908e8e8d8c8c88878a858589848388838388838388838388
95919092908f908e8e8c8b8c88878a858589838388838388838388
96929095919092908f908f8f8c8b8c88878a86868a838388838388
969290969290959190949190908f8f8c8b8c8c8b8d86868a838388
979290969290969290979290949190908f8f928f8f8c8b8d86868a
979290979290969290979390979290949190969290928f8f8c8b8d
979390979290979290979390979390979290979390969290928f8f
979390979390979290979390979390979390979390979390969290
97938f979390979390979390979390979390989390979390979390
97938f97938f979390979390979390979390989390989390979390
97939097938f97938f979390979390979390979390989390989390
97939097939097938f979390979390979390979390979390989390
96929096929097929096928f97928f97939097928f97928f97928f
96928f96929096929096928f96928f97928f96928f97928f97928f
97928f96928f96929096928f96928f96928f96928f96928f97928f
96928f97928f96928f96928f96928f96928f96928f96928f96928f
96928f96928f97928f96928f96928f96928f96928f96928f96928f
96918f96928f96928f95918f96928f96928f95918f96928f96928f
96928f96918f96928f96928f95918f96928f95918f95918f96928f
96928f96928f96918f96928f96928f95918f96918f95918f95918f
97929096928f96928f96928f96928f96928f948f8e96918f95918f
97929097929096928f95918f96928f96928f8e8c8c948f8e96918f
96928f97929097929095908e95918f96928f8a888a8e8c8c948f8e
96928f96928f979290928e8d95908e95918f8785898a888a8e8c8c
95928f96928f96928f8f8c8c928e8d95908e8584888785898a888a
95918f95928f96928f8d8b8b8f8c8c928e8d848388858488878589
95918f95918f95928f8c8a8b8d8b8b8f8c8c848388848388858488
95918f95918f95918f8c8b8b8c8a8b8d8b8b838388848388848388
95929095918f95918f8d8c8c8c8b8b8c8a8b848388838388848388
96929095929095918f908e8e8d8c8c8c8b8b858589848388838388
96929096929095929092908f908e8e8d8c8c88878a858589848388
97929096929096929095919092908f908e8e8c8b8c88878a858589
97928f97929096929096929095919092908f908f8f8c8b8c88878a
97938f97928f979290969290969290959190949190908f8f8c8b8c
97929097938f97928f979290969290969290979290949190908f8f
97929097929097938f979290979290969290979390979290949190
97938f979290979290979390979290979290979390979390979290
97938f97938f979290979390979390979290979390979390979390
97939097938f97938f97938f979390979390979390979390979390
97929097939097938f97938f97938f979390979390979390979390
97929097929097939097939097938f97938f979390979390979390
97939097929097929097939097939097938f979390979390979390
96928f96928f96929096929096929097929096928f97928f979390
96928f96928f96928f96928f96929096929096928f96928f97928f
96928f96928f96928f97928f96928f96929096928f96928f96928f
96928f96928f96928f96928f97928f96928f96928f96928f96928f
96928f96928f96928f96928f96928f97928f96928f96928f96928f
95918f96928f96928f96918f96928f96928f95918f96928f96928f
96928f95918f96928f96928f96918f96928f96928f95918f96928f
96929096928f95918f96928f96928f96918f96928f96928f95918f
96928f96929096928f97929096928f96928f96928f96928f96928f
97929096928f96929097929097929096928f95918f96928f96928f
97928f97929096928f96928f97929097929095908e95918f96928f
96929097928f97929096928f96928f979290928e8d95908e95918f
96928f96929097928f95928f96928f96928f8f8c8c928e8d95908e
96929096928f96929095918f95928f96928f8d8b8b8f8c8c928e8d
97929096929096928f95918f95918f95928f8c8a8b8d8b8b8f8c8c
96928f97929096929095918f95918f95918f8c8b8b8c8a8b8d8b8b
96929096928f97929095929095918f95918f8d8c8c8c8b8b8c8a8b
97929096929096928f96929095929095918f908e8e8d8c8c8c8b8b
96928f97929096929096929096929095929092908f908e8e8d8c8c
97928f96928f97929097929096929096929095919092908f908e8e
97928f97928f96928f97928f97929096929096929095919092908f
96928f97928f97928f97938f97928f979290969290969290959190
97939096928f97928f97929097938f97928f979290969290969290
97939097939096928f97929097929097938f979290979290969290
97938f97939097939097938f979290979290979390979290979290
97928f97938f97939097938f97938f979290979390979390979290
97928f97928f97938f97939097938f97938f97938f979390979390
96928f97928f97928f97929097939097938f97938f97938f979390
96929096928f97928f97929097929097939097939097938f97938f
97938f96929096928f97939097929097929097939097939097938f
96929096928f96928f96928f96928f969290969290969290979290
96929096929096928f96928f96928f96928f96928f969290969290
96928f96929096929096928f96928f96928f97928f96928f969290
96928f96928f96929096928f96928f96928f96928f97928f96928f
96928f96928f96928f96928f96928f96928f96928f96928f97928f
95928f96928f96928f95918f96928f96928f96918f96928f96928f
96928f95928f96928f96928f95918f96928f96928f96918f96928f
96928f96928f95928f96929096928f95918f96928f96928f96918f
96928f96928f96928f96928f96929096928f97929096928f96928f
97928f96928f96928f97929096928f96929097929097929096928f
97928f97928f96928f97928f97929096928f96928f979290979290
96928f97928f97928f96929097928f97929096928f96928f979290
96928f96928f97928f96928f96929097928f95928f96928f96928f
97929096928f96928f96929096928f96929095918f95928f96928f
97929097929096928f97929096929096928f95918f95918f95928f
97929097929097929096928f97929096929095918f95918f95918f
97928f97929097929096929096928f97929095929095918f95918f
97928f97928f97929097929096929096928f96929095929095918f
97929097928f97928f96928f979290969290969290969290959290
97929097929097928f97928f96928f979290979290969290969290
97929097929097929097928f97928f96928f97928f979290969290
96929097929097929096928f97928f97928f97938f97928f979290
96928f96929097929097939096928f97928f97929097938f97928f
97929096928f96929097939097939096928f97929097929097938f
97938f97929096928f97938f97939097939097938f979290979290
96929097938f97929097928f97938f97939097938f97938f979290
96928f96929097938f97928f97928f97938f97939097938f97938f
96938f96928f96929096928f97928f97928f97929097939097938f
96939096938f96928f96929096928f97928f979290979290979390
97938f96939096938f97938f96929096928f979390979290979290
