memory_initialization_radix = 16;
memory_initialization_vector =
0011,
fff7,
001e,
0014,
fff3,
0003,
fffb,
ffda,
ffff,
0020,
0009,
fff6,
0049,
0020,
0001,
0025,
002e,
0031,
fff8,
ffc3,
ffdd,
0015,
ffdf,
ffb2,
0018,
ffea,
ffde,
ffe9,
0006,
000d,
fffa,
0024,
ffe5,
0038,
001d,
fffc,
ffee,
ffe4,
0004,
ffed,
ffe7,
0007,
003c,
0018,
ffc3,
0028,
0007,
001c,
002c,
000b,
ffe9,
001d,
ffd8,
ffa4,
0026,
0007,
fff6,
0045,
002c,
001f,
ffef,
ffd9,
0017,
ffbe,
ffe9,
fffe,
ffe9,
001b,
0036,
ffe7,
fffe,
003c,
ffb1,
ffdd,
0000,
ffcf,
ffd6,
0012,
001e,
0018,
fff3,
0000,
0028,
000b,
ffdf,
fff3,
0000,
0005,
000e,
0015,
0008,
002e,
000e,
0016,
0013,
ffe3,
001c,
ffe3,
000d,
000b,
fff5,
ffe0,
fff3,
001f,
0009,
0013,
0000,
ffdf,
0015,
ffe2,
fffb,
0026,
001e,
000e,
0034,
0029,
fffa,
fffb,
ffd6,
ffd5,
ffef,
0005,
ffc6,
0006,
fff8,
ffe3,
0010,
ffcf,
ffe1,
ffe7,
ffff,
0007,
fff7,
ffee,
0004,
0007,
000c,
fff9,
0016,
fff4,
fff7,
0007,
ffce,
ffe1,
002f,
0019,
ffe3,
0009,
0012,
0035,
0020,
ffde,
ffdf,
fffb,
000f,
fff7,
ffec,
ffee,
0006,
fff1,
0005,
ffb5,
001d,
ffed,
ffd4,
0022,
ffd3,
001f,
ffec,
ffc9,
0031,
ffdf,
ffdb,
fffb,
ffff,
ffdd,
fffe,
fffe,
ffdb,
0028,
ffc4,
0003,
000d,
0003,
fff3,
0007,
0022,
ffed,
000d,
001b,
0008,
0012,
0003,
004a,
fff8,
ffd0,
0026,
ffa3,
0012,
002e,
fff1,
001d,
0042,
ffec,
fff9,
0029,
ffb0,
ffd0,
0023,
fff4,
ffdc,
0032,
0011,
0001,
002a,
ffbc,
0013,
fffd,
002a,
ffe6,
0018,
0011,
fffd,
ffdc,
ffec,
fff3,
ffe0,
0032,
0014,
0014,
0017,
fff7,
fff4,
fff4,
0029,
fffa,
0004,
0029,
ffe4,
002f,
0000,
ffd3,
000a,
fff6,
0019,
0019,
ffe1,
ffea,
0004,
ffea,
ffe5,
000e,
0011,
ffd3,
ffe0,
ffcc,
ffd3,
ffb1,
fffa,
0009,
0005,
fffd,
ffeb,
000f,
0017,
0007,
000e,
0055,
003d,
0050,
0012,
fffd,
ffc9,
0017,
0003,
ffe2,
fffa,
002b,
0019,
0006,
0000,
ffe8,
000e,
fff7,
fffb,
ffdf,
0007,
0016,
001f,
0024,
0023,
ffe6,
fff7,
0013,
0009,
ffeb,
ffe5,
0027,
ffe8,
0020,
fff7,
0023,
fff8,
0024,
ffde,
0018,
fff8,
000c,
0027,
ffe3,
fff7,
fff9,
ffdb,
ffff,
ffdf,
ffe1,
0020,
0019,
ffb6,
ffdc,
002a,
ffdd,
fffe,
001e,
ffbb,
ff9c,
ffb1,
0006,
0000,
0005,
ffc1,
ffe4,
ffe4,
0001,
ffbf,
ffdd,
001d,
0034,
002b,
0005,
fffc,
0020,
0023,
fffb,
ffdc,
0032,
002c,
003c,
000c,
004d,
000d,
ffe7,
ffe3,
ffd8,
ffce,
ffd6,
ffcb,
0000,
0026,
fffb,
ffdd,
ffd6,
ffb5,
0020,
0000,
0011,
003b,
0059,
005e,
ffdd,
ffdf,
ffbc,
0003,
000e,
fff0,
0062,
0039,
0024,
ffd4,
ffde,
ffdc,
ffc9,
ffe3,
ffd8,
ffe7,
ffc4,
0014,
ffe5,
fffb,
ffd6,
0006,
0006,
fff6,
001d,
ffec,
0022,
0033,
0029,
000e,
004b,
002b,
0030,
0021,
ffe8,
0011,
0037,
ffee,
ffc3,
ffe5,
0022,
ffa3,
fff4,
ffe9,
ffd3,
ffea,
0024,
ffa8,
0001,
0014,
ffc7,
fffd,
000b,
fff2,
0043,
0045,
fff1,
0011,
002a,
ffe5,
0034,
0048,
0010,
ffde,
ffc5,
0001,
0001,
ffe2,
0003,
0005,
ffd7,
ffd8,
ffff,
0016,
fff3,
0020,
000f,
000e,
001a,
ffed,
0001,
fff9,
000a,
001c,
0017,
002c,
000f,
0027,
fff5,
0001,
0046,
ffad,
ff95,
0027,
ffb6,
ffd9,
0006,
ffc8,
ffac,
0015,
ffd9,
ffdb,
0015,
fff7,
ffeb,
0021,
0009,
ffe4,
0058,
000d,
ffb9,
0045,
fff3,
fff1,
0018,
fff7,
ffe1,
fff2,
001c,
000d,
000d,
0019,
ffe3,
fff9,
ffe9,
ffb4,
0034,
003c,
0011,
fff5,
0013,
0009,
000c,
ffe6,
ff8f,
001e,
0024,
0010,
003d,
003f,
fff4,
ffe3,
0006,
ff8a,
004a,
ffd5,
0038,
0016,
ffcc,
ffff,
fffd,
ffd9,
0024,
000f,
ffda,
fffc,
ffea,
ffcc,
fffa,
002d,
ffea,
ffff,
0005,
ffd4,
0042,
0024,
ffba,
000b,
0012,
ffcc,
ffe9,
0007,
0025,
ffe8,
0055,
0044,
005e,
0000,
004f,
0046,
ffda,
ffd6,
ffb3,
0048,
ffe9,
ffcf,
003b,
000f,
000b,
ffcf,
0000,
ffdd,
ffed,
ffbd,
ffa5,
0001,
fff0,
ffc4,
fffd,
ffe8,
ffea,
0017,
fffd,
ffd7,
0012,
fff9,
ffe7,
fff2,
ffd5,
ffb8,
ffef,
0023,
ffeb,
ffc8,
ffd4,
ffe7,
0015,
ffea,
0005,
0042,
0052,
0057,
001d,
0025,
001b,
0020,
fffc,
ffda,
002d,
0018,
ffd7,
0035,
000d,
0026,
0008,
fff6,
ffb0,
fffb,
0007,
0003,
0012,
002b,
ffed,
ffed,
000d,
0001,
fff6,
fff3,
ffc7,
002e,
0016,
ffdd,
ffb8,
ffc8,
0001,
ffe1,
ffee,
0017,
0013,
0001,
0041,
ffe0,
0014,
0027,
ffd0,
ffe0,
fff9,
ffda,
ffd2,
000c,
ffda,
0019,
0013,
ffbd,
ffe2,
003c,
ffd9,
ffc0,
0019,
0011,
ffff,
0002,
ffc9,
0021,
0006,
ffdd,
ffe2,
ffef,
0002,
ffee,
0007,
000b,
ffe6,
0011,
000c,
fff1,
0041,
ffc3,
ffd8,
0011,
ffdd,
ffe8,
ffef,
fff3,
ffe6,
fff5,
ffec,
ffec,
0003,
ffd3,
0011,
0025,
fff7,
0049,
0051,
0004,
ffe0,
000e,
ffa7,
ffad,
ffcc,
fff8,
002a,
0025,
0033,
0022,
004e,
ffb4,
fff6,
0004,
ffc9,
fff8,
fff1,
0000,
ffd3,
0012,
ffc8,
ffbf,
fff9,
0004,
0002,
002d,
0017,
0035,
0027,
ffc4,
ffc3,
ffe0,
ffcc,
ffd2,
fff1,
0055,
002f,
0049,
0043,
fff6,
0042,
ffde,
ffaf,
002c,
0008,
ffec,
0004,
000a,
ffef,
0013,
ffdb,
ffec,
0008,
0001,
002a,
0018,
0003,
fffa,
ffe4,
0009,
000e,
0012,
001b,
0025,
fffd,
fff3,
0002,
fff4,
0023,
0008,
001d,
001a,
0007,
0046,
0041,
0012,
0005,
0007,
001f,
0032,
ffef,
ffcb,
ffad,
0019,
ffc1,
ffd8,
ffcb,
ffdc,
0001,
002b,
ffea,
000c,
0011,
ffeb,
ffd4,
ffea,
000f,
0011,
ffe0,
fff6,
ffcf,
fff9,
0009,
ffe1,
0018,
003a,
0009,
0007,
fffa,
000e,
0003,
0010,
0017,
0013,
001a,
003c,
ffdc,
ffc3,
ffb9,
0006,
ffe0,
0011,
0015,
001b,
0031,
0023,
ffe5,
0001,
ffe6,
ffea,
0014,
ffef,
000a,
fff5,
ffd8,
fff3,
000c,
ffe5,
ffea,
0012,
0008,
0018,
001d,
fff7,
fff2,
0005,
ffce,
ffe1,
ffe1,
0012,
ffd7,
0008,
ffd2,
fff9,
fff8,
ffcc,
ffef,
0002,
ffe4,
ffc1,
fff8,
0009,
fffa,
fff1,
ffc4,
ffbb,
fffc,
ffed,
fffd,
0000,
fff4,
ffcd,
0008,
003e,
0035,
000b,
0067,
0028,
004c,
0001,
0021,
ffdb,
0014,
0031,
ffdc,
000c,
fff8,
fff3,
fff8,
fff5,
ffb8,
ffda,
ffe4,
ffde,
ffde,
000d,
ffc7,
fffb,
ffcf,
ffc2,
000b,
0018,
0004,
001d,
0007,
001f,
0000,
fff1,
ffe7,
0012,
fff2,
fff1,
0002,
ffd5,
0018,
0018,
fffc,
ffef,
ffef,
ffc1,
ffd9,
fff2,
fff4,
0012,
0001,
ffd6,
002b,
fff3,
ffbc,
fff2,
0025,
fff0,
003f,
ffe2,
0017,
0009,
ffda,
0016,
fffe,
fff4,
0023,
0009,
0012,
ffdd,
0016,
ffdd,
0009,
0001,
0024,
0027,
0014,
0011,
fffa,
ffd8,
ffe8,
0024,
000c,
001a,
0023,
0024,
fffa,
0014,
ffde,
ffeb,
001c,
ff9f,
ffeb,
0006,
ff96,
fffd,
fff6,
ffbd,
0012,
0005,
fff6,
fffd,
0026,
0001,
001d,
002a,
ffd3,
0028,
0033,
0030,
0035,
0042,
fff5,
fff8,
fff1,
ffe4,
ffe9,
fff9,
001c,
0032,
0021,
002c,
ffc1,
ffc6,
ffd5,
0000,
ffeb,
ffe3,
0029,
001b,
0008,
ffe8,
fff7,
ffe4,
fff7,
fff8,
ffe9,
0023,
0036,
0025,
ffd7,
0003,
ffd7,
0036,
0020,
003f,
005e,
006c,
002e,
ff90,
fffa,
ffef,
ffe3,
ffd2,
fff7,
000d,
0025,
005c,
fffc,
0017,
0009,
ff80,
ffcc,
ffda,
ffcb,
ffce,
0017,
fffb,
0023,
0004,
fff6,
0025,
0030,
ffde,
0001,
0007,
0005,
ffd5,
ffdc,
0002,
ffd2,
ffd7,
fff7,
ffec,
fffd,
002a,
001c,
fff1,
0015,
0018,
ffef,
0018,
001b,
fffd,
0016,
0010,
0056,
0022,
0002,
0021,
0053,
0043,
0074,
ffc3,
fff3,
0006,
fffc,
ffe6,
ffe7,
ffd8,
ffbd,
ffe8,
0011,
ffe1,
0045,
ffb7,
ffc6,
ffd2,
ffef,
ffb7,
fff9,
0009,
ffef,
ffe4,
fff0,
005b,
ffd6,
005f,
0006,
0044,
0002,
000d,
0038,
fff1,
0014,
0001,
0053,
ffe9,
007f,
ffdc,
006b,
001f,
0019,
0041,
fff3,
ffe6,
fffd,
000f,
ffdf,
0061,
001c,
0026,
000e,
0022,
0042,
ffe3,
ffbf,
ffc6,
fffe,
ffda,
ffcf,
0013,
ffe5,
ffec,
ffeb,
fffc,
0009,
ffe6,
ffd7,
000e,
ffd4,
000e,
ffb1,
fff8,
fffe,
ffa8,
fff2,
0012,
0053,
006d,
ffe6,
ffcf,
002e,
0026,
ffe5,
ffe4,
ffe0,
0015,
001a,
ffae,
0033,
ffe6,
ffa1,
fff0,
ffd9,
002e,
fff7,
004f,
ffa7,
0022,
000c,
fff8,
ffce,
ffd8,
001c,
ffe0,
ffda,
fffc,
ffe5,
002a,
0020,
fff5,
ffff,
fff9,
004e,
ffa2,
005d,
ffd7,
0012,
ffd5,
fffb,
ffea,
002b,
0017,
ffbf,
ffe1,
ffde,
ffe1,
001c,
0019,
ffeb,
ffe6,
ffc5,
0046,
0002,
ffb9,
003e,
ffce,
ffda,
0018,
0028,
001a,
ffd0,
ffc9,
0009,
001d,
000f,
0015,
ffe6,
0015,
fffe,
0016,
ffd2,
001b,
fff5,
0008,
0003,
0027,
0000,
fff1,
ffd9,
ffea,
ffee,
0002,
ffe9,
fffc,
fff2,
ffcb,
fff3,
000a,
ffc7,
fffa,
ffc6,
002e,
ffee,
fff2,
fffd,
ffe6,
fffd,
000e,
fffd,
ffef,
ffe9,
ffe5,
001d,
ffb9,
0008,
fff6,
000b,
ffe0,
fff2,
0034,
000c,
ffd4,
ffab,
fffe,
ffd8,
ffdd,
ff93,
ffd5,
ffbc,
ffdf,
ffe4,
0008,
0003,
003b,
ffd4,
001f,
001a,
fff9,
0032,
0005,
fffb,
fffa,
ffe0,
001a,
001e,
0019,
0021,
002c,
001b,
0010,
0010,
002b,
fff5,
001b,
0016,
ffdc,
001d,
ffc6,
ffd8,
fffd,
000f,
0011,
000a,
0041,
ffbf,
ffde,
ffd1,
003c,
ffba,
fff2,
ffe6,
ffd0,
0006,
0013,
0039,
ffb5,
fff4,
ffce,
fff8,
ffd6,
003c,
ffb7,
ffbe,
fffa,
0010,
0001,
0038,
0022,
001b,
ffe3,
fff5,
000b,
ffe7,
002e,
ffed,
0035,
0013,
001b,
ffe5,
ffd4,
0020,
fffb,
ffed,
001f,
fff8,
fff7,
0012,
ffc0,
002a,
0009,
fff6,
0027,
0048,
002b,
002d,
ffdb,
0015,
0000,
ffbb,
0023,
0022,
001e,
003b,
0010,
ffcf,
ffc6,
0019,
ffcc,
0001,
0002,
0005,
ffe7,
ffdb,
fff8,
000f,
fff0,
001a,
001d,
ffc1,
0015,
ffdb,
fff8,
ffd2,
001a,
ffdf,
ffee,
002f,
005b,
0002,
001e,
ffec,
ffe3,
ffd4,
0011,
0028,
ffff,
ffe3,
fff2,
0005,
0023,
0000,
fff0,
0026,
0002,
0013,
002f,
ffdd,
ffcd,
fff3,
ffe8,
0010,
fff9,
001d,
ffda,
0033,
fffe,
ffbf,
002d,
0038,
fffe,
0004,
0063,
0055,
ffb1,
ffb5,
0007,
002e,
0011,
0042,
ff8d,
fff9,
ffd0,
ffd6,
002d,
ffd6,
ffe5,
0036,
ffcc,
ffc6,
ffef,
ffbe,
ffd8,
0019,
fff2,
ffd4,
0003,
ffe0,
001b,
003c,
ffa9,
ffc9,
fff2,
0014,
fff7,
002d,
000b,
ffbe,
fff9,
0017,
fff2,
ffe5,
0059,
0024,
ffb8,
0029,
0030,
0023,
ffe0,
ffe2,
ffc0,
005a,
001c,
fff5,
ffcd,
0007,
0036,
ffe2,
ffcc,
0017,
ffda,
ffe6,
0005,
fff3,
0021,
002c,
0001,
ffca,
fff1,
0064,
ffe6,
ffc5,
ffb4,
002f,
0016,
fffd,
ffc2,
ffcf,
000f,
0033,
ffe0,
0017,
001d,
002f,
ffbd,
0042,
ffe1,
0037,
ffb6,
ffe1,
001f,
004b,
ffd7,
ffdb,
000b,
ffd2,
ffd5,
001d,
0012,
ffce,
0017,
ff81,
005f,
0016,
ffdc,
0045,
fffe,
ffe3,
003a,
0058,
ffce,
002d,
ffe2,
ffe9,
fff4,
002c,
ffd4,
001a,
ffbd,
0007,
0012,
fff5,
ffec,
ffae,
ffe7,
ffe3,
fffc,
ffb8,
007a,
ffd4,
ffc9,
ffda,
ffe2,
ffcb,
0017,
ffd6,
000e,
ffe0,
ffc3,
0040,
ffbc,
0006,
ffea,
ffd8,
0006,
0029,
0053,
fff8,
0028,
0033,
001b,
fffd,
0002,
0001,
fffd,
fff2,
ffe8,
0000,
fff7,
0030,
001f,
001a,
0032,
006e,
0024,
0000,
fff3,
ffc2,
ffe9,
ffbd,
000c,
ffbf,
ffa9,
ffac,
0049,
ffad,
ff8e,
0035,
0013,
fff8,
0021,
fff8,
000e,
ffd3,
ffe6,
ffe4,
ffbb,
ffef,
ffe9,
fff4,
ffe3,
0004,
ffc4,
ffe6,
0019,
000f,
ffaf,
fffb,
000e,
0005,
fff2,
ffd4,
0044,
0039,
0013,
0011,
0002,
0017,
003d,
0002,
0014,
ffef,
fff1,
ffaa,
fff4,
0003,
ffc2,
ffec,
ffdd,
000e,
ffe7,
0007,
ffee,
fffe,
ffd3,
0026,
0028,
000a,
0027,
0053,
ffe2,
ffd9,
ffef,
fff0,
ffc1,
002a,
ffef,
fffd,
fff2,
003c,
fffa,
fffb,
005a,
006c,
002b,
0030,
fffe,
fff5,
001c,
ffe5,
ffd3,
ffe3,
ffca,
ffc2,
0002,
ffed,
001d,
ffdc,
fff7,
ffd9,
fff1,
000c,
fffd,
0009,
0010,
003f,
ffde,
ffc2,
fffa,
0059,
ffc9,
0016,
0013,
0026,
ffdb,
fffa,
0039,
fff9,
000a,
0011,
002c,
ffcf,
0024,
ffb7,
fff7,
ffbe,
0042,
fffb,
0038,
0016,
ffcf,
003a,
0036,
0022,
ffdc,
001e,
0031,
fffb,
ffc9,
0037,
ffd5,
0016,
ffff,
ffd0,
0041,
000c,
0018,
0003,
0029,
0018,
0000,
003d,
004d,
000e,
fff9,
ffa6,
fff8,
fffb,
ffd7,
ffd1,
002f,
ffee,
ffc2,
0023,
002e,
ffe7,
ffe3,
ff95,
ffc5,
0037,
0045,
ffcb,
ffe5,
0065,
0048,
005c,
0056,
ffd8,
001e,
ffb7,
0043,
0060,
ffd2,
001c,
001e,
ffbd,
ffff,
005a,
ffed,
ffa9,
ff88,
001c,
ffed,
ffed,
ffca,
0006,
ffdd,
ffb2,
0001,
0055,
0010,
fff7,
0032,
ffe0,
ffa9,
0000,
0038,
0072,
0019,
0060,
ffb5,
0034,
fff3,
001c,
ffcf,
fffb,
0016,
ffed,
0000,
0000,
0004,
ffa3,
0026,
0061,
0018,
0035,
fff6,
ffce,
fff9,
006b,
000b,
0031,
fffd,
ffe1,
004b,
fffe,
ffed,
0042,
001c,
ffe6,
ffe0,
fff3,
000b,
ffe1,
0029,
ffe0,
ffd2,
ffea,
0049,
0043,
0010,
001f,
001e,
0035,
0013,
0038,
005d,
ffe6,
0017,
0027,
0010,
005d,
0014,
0027,
0010,
ffbf,
0006,
0028,
ffc2,
ffa7,
0029,
0023,
ffe3,
ffdf,
ffb8,
0038,
fff3,
ffed,
fff9,
ffbc,
0029,
ffc0,
ffce,
0000,
fffd,
ffb9,
0025,
ffbd,
ffd9,
fff1,
ffcc,
ffc0,
ffd4,
ffe6,
004d,
ffaa,
ffb2,
001b,
ffbc,
ffb2,
ffdc,
000c,
ff98,
ffac,
0037,
0037,
001c,
ffeb,
ffe8,
0032,
ffef,
ffe7,
ffde,
000a,
ffde,
ffe0,
0006,
fff9,
ffe2,
fffb,
001e,
fffc,
0030,
001f,
fff7,
fffd,
ffeb,
0002,
ffe0,
ffee,
ffef,
ffef,
0004,
fff9,
ffe4,
0024,
ffd8,
0012,
ffe1,
fff9,
0021,
0019,
0018,
001b,
0006,
0000,
ffdd,
0022,
fff3,
000e,
ffdc,
0002,
002e,
001b,
fff0,
ffe2,
0006,
0004,
0014,
fff9,
0038,
0026,
ffe1,
001c,
001f,
fff9,
ffd4,
fff0,
0009,
ffed,
000a,
ffe1,
0021,
0010,
ffcc,
001b,
ffe1,
000a,
0014,
002f,
ffee,
0014,
fff3,
000d,
002e,
ffdd,
ffff,
0017,
0008,
fff5,
000a,
fff7,
0007,
0002,
0005,
ffe2,
0014,
0014,
ffd9,
ffd5,
ffef,
ffe1,
002a,
ffef,
0012,
ffe4,
0026,
000c,
0014,
000f,
0002,
fff7,
0005,
fffe,
fffe,
0022,
0025,
fff3,
ffdf,
0018,
fff7,
ffe1,
0043,
000c,
002b,
0004,
fff7,
ffea,
ffc4,
001e,
0000,
ffef,
ffdc,
0000,
001f,
ffe9,
fffd,
ffda,
ffe4,
ffe9,
ffe3,
0028,
000f,
ffdc,
fffd,
0023,
0025,
fff4,
0019,
ffec,
001c,
ffe3,
fff6,
fffb,
001a,
ffd4,
fff9,
002a,
fff8,
0009,
0002,
fff5,
ffdd,
ffef,
0022,
0001,
0021,
0001,
0030,
ffe1,
0028,
fff6,
ffe0,
0019,
0013,
fffb,
0029,
0010,
ffdd,
000f,
fffc,
ffe9,
ffe7,
ffdf,
fffb,
ffcb,
0008,
ffee,
ffe7,
ffd6,
0003,
000d,
0006,
0010,
0006,
ffcf,
ffe9,
000f,
0021,
fffe,
fff0,
fff3,
fffe,
0007,
ffe9,
ffd2,
ffd4,
fff5,
ffdc,
0011,
fff8,
002c,
0016,
ffff,
001a,
001c,
002b,
fff2,
ffdd,
ffe1,
ffe3,
fff4,
0038,
ffe7,
ffcf,
fff5,
ffe7,
ffd5,
0010,
ffd5,
0002,
001d,
fff8,
0026,
0020,
ffe6,
ffee,
000c,
ffef,
0022,
fff5,
ffce,
0017,
fff4,
000c,
000e,
0014,
0013,
ffe6,
0016,
0026,
ffdb,
0016,
fffb,
ffdc,
ffdc,
0038,
fff6,
0002,
fff9,
0034,
ffd7,
0007,
0009,
0011,
ffef,
0026,
0005,
0000,
fff7,
ffeb,
0012,
0039,
0014,
fffc,
0002,
001d,
fffd,
0014,
001c,
003e,
ffe6,
ffe4,
0017,
ffd3,
ffe1,
ffd2,
0056,
ffcc,
fff2,
002f,
fff3,
fff4,
001a,
fff8,
ffbb,
fffa,
fff4,
002d,
0049,
0025,
ffdf,
ffc3,
fffc,
000c,
0002,
ffe0,
002b,
ffee,
fff8,
000a,
ffe4,
0019,
fff4,
ffe5,
ffd0,
0018,
fff9,
0034,
ffe0,
0019,
0010,
000d,
0017,
0019,
fff4,
ffeb,
fff3,
ffec,
ffe4,
0007,
ffcc,
002f,
0003,
ffff,
fffd,
0021,
ffe8,
001c,
0002,
0034,
ffd9,
0057,
000e,
0003,
ffbe,
ffd9,
ffcc,
ffe0,
0016,
ffdf,
0044,
ffd6,
0024,
0044,
0013,
ffe5,
0003,
fffb,
0010,
ffe2,
004e,
fff2,
0019,
fffd,
0037,
ffdd,
fffc,
0008,
0022,
fffc,
ffea,
0025,
000a,
001a,
ffe7,
001a,
000f,
ffeb,
ffdd,
002f,
000d,
000a,
000a,
fffa,
ffe6,
0003,
ffd5,
ffe6,
001c,
fff5,
ffec,
ffec,
0005,
ffe9,
ffe4,
ffd2,
fff3,
ffe6,
fff1,
000d,
002a,
001c,
ffe5,
001a,
ffd8,
ffd2,
0022,
fff8,
fff2,
001b,
0005,
ffe9,
001e,
0019,
0005,
001d,
ffdb,
0019,
001e,
0034,
0001,
000d,
fff3,
ffea,
0006,
0006,
0012,
0007,
0015,
002a,
ffdf,
fffb,
0005,
ffd2,
0002,
0027,
0018,
ffda,
0015,
001a,
ffdb,
0012,
fff0,
0015,
ffe7,
ffff,
001b,
000d,
ffda,
0029,
0015,
0036,
0001,
ffec,
000c,
0017,
000b,
ffd8,
0011,
0038,
0010,
ffef,
002c,
fff7,
ffe5,
ffcc,
000a,
ffbf,
0022,
ffeb,
000b,
0038,
ffff,
0027,
fff3,
ffd7,
ffe2,
0019,
002f,
002b,
0003,
ffe0,
fff3,
0002,
ffe8,
ffd4,
fff2,
ffff,
002c,
002c,
ffcf,
001a,
002c,
ffe7,
ffd6,
001e,
ffdf,
0021,
0005,
003c,
0009,
002c,
fff0,
0028,
fff7,
ffe8,
0001,
ffde,
0003,
0036,
ffe0,
0012,
000a,
ffe7,
ffea,
001e,
fff3,
ffef,
fff2,
003c,
ffea,
001a,
fff3,
0002,
ffd5,
000c,
0019,
0003,
ffe3,
001f,
fff8,
ffd7,
0018,
ffe7,
fffb,
001d,
0020,
0005,
ffe5,
ffd5,
ffda,
fffa,
000e,
ffe8,
ffdf,
0035,
000f,
fff7,
fff8,
fff3,
0025,
0025,
ffe8,
ffd7,
ffe5,
fff5,
fff1,
0033,
ffe0,
ffe3,
0003,
002a,
ffe7,
fff1,
ffe5,
ffff,
ffeb,
0007,
fff3,
ffff,
0014,
0003,
fffd,
ffec,
fffa,
ffec,
fff3,
ffee,
ffce,
ffdb,
ffde,
0024,
002e,
0018,
0015,
ffef,
0019,
002a,
ffe1,
0003,
fffc,
0008,
fffb,
ffee,
0006,
ffe1,
0012,
ffff,
0033,
003d,
0011,
0013,
002b,
0028,
000f,
ffc0,
0013,
ffd5,
0020,
000f,
0000,
fff2,
fffa,
fff6,
ffcc,
0023,
0023,
ffe6,
fff4,
0002,
fffb,
ffe3,
0011,
0026,
ffe3,
ffe6,
000b,
0005,
ffe5,
0016,
0032,
0028,
0017,
0015,
ffcd,
0018,
001b,
fff0,
001a,
002e,
0022,
001e,
ffff,
fff3,
ffee,
ffe6,
001c,
000a,
001c,
fffb,
fffd,
000b,
fff9,
0002,
ffb8,
ffd1,
0010,
0011,
000d,
0034,
fff1,
000b,
0011,
0025,
0008,
ffba,
003c,
ffec,
fff1,
0004,
0012,
0019,
ffe1,
ffea,
0020,
002c,
0015,
fffe,
ffe4,
fff0,
ffc2,
fff8,
ffe9,
ffe5,
ffdf,
0043,
000f,
003a,
ffdc,
ffed,
0029,
ffff,
fffc,
001e,
0006,
ffff,
fffc,
001e,
0033,
0013,
fff1,
0047,
0012,
0028,
ffdf,
fff0,
fff4,
fff4,
001c,
ffd1,
0035,
0017,
001c,
0011,
000f,
ffcc,
0005,
001c,
ffed,
ffde,
fffe,
fff2,
ffe0,
001c,
0012,
ffef,
ffea,
ffce,
003e,
001f,
0011,
0003,
fff6,
fffe,
000f,
fffb,
fff1,
003e,
fff9,
fffe,
ffe7,
0017,
003e,
0036,
ffe9,
fff5,
000b,
001c,
ffef,
ffec,
fff1,
ffef,
0002,
ffe0,
001c,
001b,
0022,
001d,
fffe,
ffe3,
0011,
0010,
003c,
001d,
ffd0,
ffd0,
000a,
ffbb,
0036,
001e,
0027,
fff2,
0018,
ffb2,
ffdf,
0003,
0021,
fffe,
003e,
0013,
000a,
ffde,
0045,
0048,
ffef,
fff3,
0016,
ffd8,
0001,
0009,
ffb8,
0003,
000c,
000d,
0030,
0039,
0016,
0027,
ffe7,
ffc9,
0022,
0014,
ffd3,
ffd7,
0000,
0041,
ffde,
001f,
ffe9,
0014,
000e,
ffe7,
ffeb,
ffcc,
000c,
0019,
0019,
0004,
ffba,
ffc6,
ffe4,
ffef,
fff0,
ffb9,
ffd1,
0015,
ffbf,
0014,
0006,
000c,
ffd8,
0002,
0001,
0015,
0024,
0018,
0014,
ffb3,
ffd3,
ffef,
ffdd,
0023,
0017,
000d,
ffc1,
0026,
ffb8,
fff6,
000e,
0008,
0012,
ffe1,
0029,
ffe1,
0005,
0027,
ffe0,
0035,
fffd,
0001,
ffe5,
ffd2,
0005,
0032,
002d,
0013,
0041,
ffee,
0005,
0007,
0033,
ffeb,
0021,
ffef,
ffd5,
fff2,
000d,
0041,
0001,
fff9,
ffff,
ffcb,
ffed,
ffe9,
001c,
ffdc,
003b,
0001,
ffec,
0024,
fffa,
fffd,
0003,
fff4,
fff3,
0036,
0023,
ffe5,
ffea,
0005,
fff9,
fff8,
ffce,
fff2,
fff7,
0019,
0037,
0028,
fff0,
0050,
000f,
0018,
0019,
ffc5,
0015,
fff3,
0029,
0014,
ffec,
ffd5,
ffd8,
0019,
ffe6,
0016,
ffdb,
fff5,
0023,
fff1,
000b,
002e,
ffce,
0009,
001b,
ffeb,
ffe8,
0004,
ffe5,
000f,
001c,
000d,
ffa9,
0021,
fff8,
fff0,
fffd,
ffde,
0009,
003b,
ffc1,
0030,
000c,
003b,
0026,
fffd,
ffe6,
0018,
fffc,
ffef,
0004,
001e,
ffc9,
001b,
000a,
ffff,
ffea,
fff1,
0013,
0011,
ffe6,
0020,
000f,
000d,
fff7,
ffd0,
0007,
ffd8,
ffea,
000b,
0004,
fff7,
ffdd,
ffe8,
003a,
fff8,
0004,
ffe9,
0002,
0008,
ffe6,
fffa,
0032,
0012,
ffdd,
0004,
ffe6,
fffa,
ffe8,
fffd,
0008,
0035,
000a,
ffe7,
0015,
fffc,
fff3,
ffbb,
0064,
ffdc,
ffe4,
fff7,
002f,
0013,
0015,
fff9,
000f,
fff3,
0009,
ffba,
ffc2,
ffdd,
0001,
0006,
ffff,
ffc4,
ffe2,
002d,
ffee,
0014,
0015,
001f,
002c,
ffef,
fff8,
ffea,
fff5,
ffe4,
0032,
0025,
fff8,
ffca,
000a,
002b,
0012,
002b,
0025,
003a,
ffdd,
0003,
ffd7,
ffcd,
0031,
0026,
0039,
001f,
ffe8,
ffbf,
fff5,
0042,
0022,
0015,
0027,
0014,
0004,
0034,
ffff,
ffc2,
0015,
ffab,
0065,
ffeb,
004e,
ffe6,
fff2,
ffff,
0031,
ffb6,
0003,
ffeb,
0026,
0007,
0062,
ffbc,
001b,
0002,
001c,
0002,
fff4,
ffe5,
001d,
003d,
ffdf,
fff4,
ffdc,
0013,
fff9,
fffd,
ffec,
000e,
ffd1,
000b,
0023,
ffec,
fff0,
001a,
0006,
fff6,
0000,
0007,
ffd5,
0052,
fff9,
0020,
fffe,
ffcc,
000e,
0037,
0008,
0017,
0008,
001d,
ffbf,
fff2,
fff4,
0010,
0018,
000d,
0007,
fff8,
ffe3,
000c,
000a,
002a,
0020,
fffb,
ffdf,
0008,
001c,
fff1,
ffe8,
fff9,
fff5,
ffe8,
fffa,
0003,
ffd7,
fff1,
0008,
0017,
ffe1,
0011,
0008,
ffee,
0024,
fffe,
ffe8,
fff8,
fff9,
0030,
ffeb,
fffe,
ffe0,
002f,
0021,
001f,
ffe6,
ffda,
000c,
fff7,
001b,
fff1,
0028,
fffa,
0026,
000c,
fff0,
ffda,
ffdd,
0018,
ffed,
002f,
fff2,
ffee,
ffe9,
0006,
ffe4,
ffc7,
0013,
000b,
ffe4,
0009,
0025,
ffe4,
002f,
fff3,
0001,
0010,
0022,
ffd1,
ffde,
0024,
fffb,
ffda,
0004,
ffb9,
ffec,
0013,
000d,
ffea,
0003,
002b,
0032,
000c,
0001,
ffd6,
0000,
fffb,
0008,
0016,
fffb,
0011,
ffe2,
ffff,
0025,
0038,
0007,
0021,
0047,
0025,
ffe2,
fff6,
0024,
0030,
0016,
ffed,
ffdd,
ffe1,
fffa,
0041,
0028,
0046,
0031,
002b,
fff9,
0033,
0010,
fffb,
002e,
ffb3,
002c,
fff6,
0029,
0004,
0010,
001c,
fff4,
0016,
0009,
ffe9,
0011,
0012,
0044,
ffee,
000b,
ffd9,
ffeb,
0013,
0026,
0022,
000e,
0016,
002d,
fff5,
0013,
0003,
001f,
ffe5,
001a,
0005,
ffe5,
0013,
0014,
fff6,
ffe2,
ffe8,
ffe4,
0004,
ffef,
ffe7,
ffec,
001b,
ffe0,
0013,
ffef,
0007,
001c,
0019,
ffdd,
fff2,
ffef,
ffe1,
0007,
0037,
0015,
0023,
ffe1,
ffce,
ffde,
0003,
0019,
0012,
000d,
0009,
0012,
ffef,
0007,
ffd5,
ffff,
0023,
0024,
0003,
0003,
0036,
ffe7,
0033,
ffdf,
ffbb,
ffe1,
000d,
0037,
ffd9,
0005,
002b,
0016,
ffde,
0000,
000a,
0020,
fff3,
0027,
0018,
ffd8,
fffa,
000d,
ffe3,
fff8,
fff4,
001f,
0021,
fff2,
0017,
fff0,
002c,
001f,
000a,
ffec,
0023,
0000,
fffb,
ffe2,
0022,
0016,
fff0,
000f,
0010,
ffea,
ffdc,
fffc,
ffe9,
0001,
fffc,
0014,
0026,
0022,
0017,
0015,
fff0,
fff7,
ffef,
001a,
fff9,
0010,
0026,
0006,
000c,
002b,
ffd2,
0025,
ffee,
000f,
0007,
ffe4,
0003,
fffe,
0007,
002d,
001a,
001a,
0003,
ffcb,
ffd8,
0016,
fff8,
000e,
0002,
0017,
0030,
ffdf,
001c,
ffdc,
ffe2,
ffce,
0003,
0008,
fff7,
002b,
0013,
0003,
0017,
000e,
0015,
fff7,
001d,
0018,
000d,
fff7,
ffe2,
0012,
ffcd,
0022,
ffde,
ffea,
001c,
0002,
fff1,
ffe9,
ffcd,
ffd6,
ffda,
0011,
fffb,
ffec,
0033,
fff2,
000d,
002c,
ffdf,
0015,
ffea,
0042,
0027,
fff7,
ffe7,
fff0,
fffe,
0005,
ffe8,
fffa,
ffff,
0020,
001c,
000e,
fff0,
0002,
0018,
0013,
fff3,
002e,
0027,
0014,
ffe1,
0008,
000e,
ffe5,
ffea,
ffe6,
ffde,
ffd3,
fff4,
fff2,
0026,
ffbb,
0003,
000d,
0002,
000b,
0035,
0021,
fff9,
ffd7,
0006,
fff5,
fff1,
ffd6,
ffe6,
0009,
fff1,
fffd,
000d,
ffe6,
ffff,
001d,
ffe7,
ffd8,
ffec,
fff4,
ffe1,
001c,
0017,
0025,
fffe,
fff1,
0022,
0018,
000d,
ffe3,
ffbd,
fff0,
0016,
0006,
0010,
ffe3,
ffee,
fff3,
004b,
0000,
ffdc,
0016,
ffd9,
0013,
0009,
ffda,
ffed,
0020,
0005,
0024,
0012,
fffc,
0011,
ffd6,
fff3,
ffe5,
0004,
fffb,
0021,
000a,
0035,
ffdb,
001e,
ffe6,
ffd6,
000e,
fff5,
ffec,
0008,
0031,
0011,
0006,
ffdd,
fffb,
ffc8,
0017,
0009,
ffec,
ffcd,
ffed,
0031,
ffd6,
fff0,
000a,
0014,
000b,
0011,
0004,
0017,
fff5,
ffe5,
0014,
ffc8,
fff3,
ffd3,
000d,
ffe0,
ffd4,
ffcc,
ffe6,
002f,
ffcb,
0032,
000c,
ffe7,
fffe,
fff6,
fff9,
0023,
000a,
0014,
0010,
000b,
ffad,
ffe6,
ffec,
fffe,
ffe0,
ffaf,
ffd9,
ffef,
ffc7,
0002,
ffe6,
ffe8,
0000,
001a,
001f,
fffd,
001b,
ffe5,
0026,
0006,
ffdc,
0018,
000c,
0033,
ffe0,
ffdd,
0007,
001d,
fff9,
ffd9,
000c,
ffe1,
fffe,
ffeb,
ffe7,
002b,
0006,
0024,
ffdd,
0013,
000f,
0018,
ffef,
fff0,
ffdc,
000d,
0034,
0037,
0007,
fffb,
0000,
ffe9,
ffe9,
0029,
0001,
0024,
fff7,
000a,
ffd7,
0010,
000a,
ffde,
000f,
0005,
ffef,
fffa,
0021,
0008,
ffe5,
ffca,
ffff,
0007,
001c,
0002,
ffe8,
ffed,
0006,
ffd6,
fffa,
0006,
0017,
0004,
0029,
fff2,
fff8,
ffea,
fff1,
0012,
ffe9,
fff9,
fff5,
ffda,
fffd,
ffef,
fff0,
0005,
fffc,
fff4,
ffea,
000c,
0016,
0020,
000d,
0008,
0015,
fffb,
fffc,
fff5,
000c,
ffdc,
000b,
ffd5,
0017,
ffc6,
ffe8,
ffda,
002d,
ffee,
0021,
ffee,
0009,
ffe0,
ffe1,
ffee,
ffde,
ffe8,
ffd4,
0025,
ffb1,
fff4,
000e,
0011,
ffdf,
0007,
fffa,
ffea,
002a,
fff4,
0001,
fff1,
ffff,
ffe6,
0007,
fff3,
ffe9,
0012,
0002,
ffea,
ffca,
001c,
0005,
0008,
ffd0,
fff0,
ffe7,
0022,
0029,
ffde,
fff7,
ffc0,
0012,
ffda,
ffdd,
ffe0,
0006,
000e,
ffe3,
0023,
ffc9,
ffd9,
001a,
fffe,
ffe3,
0000,
0000,
ffe3,
ffe0,
0008,
0009,
ffbc,
ffc3,
ffed,
ffe5,
ffc0,
ffdd,
ffee,
0030,
000f,
0010,
004f,
ffd0,
002b,
ffb4,
fffc,
fffe,
fff5,
ffed,
0001,
fffb,
fffc,
ffca,
0016,
ffc8,
fff4,
ffed,
001a,
ffde,
001e,
0012,
0015,
ffb9,
000c,
0011,
000b,
ffeb,
0009,
000f,
fff0,
0011,
ffe6,
0008,
fff6,
0007,
ffd9,
ffdd,
ffd6,
0016,
fff5,
ffec,
0023,
000d,
0009,
fff6,
ffe6,
ffd6,
fff1,
fff6,
0022,
fff1,
ffdc,
fffe,
ffed,
ffd5,
fffa,
ffe1,
0004,
fffb,
0045,
fffd,
002e,
fff3,
0037,
ffed,
0005,
ffd4,
0000,
ffee,
0012,
000a,
0001,
ffd0,
fff1,
000b,
fff3,
ffc1,
ffe5,
ffed,
004a,
ffcb,
0011,
ffcb,
001a,
0000,
0005,
ffed,
001e,
ffde,
ffd3,
fff1,
0011,
0000,
fff4,
0019,
0027,
0010,
0022,
fffe,
0007,
ffd3,
0005,
0029,
ffe4,
001e,
ffdb,
fff4,
ffe4,
fff4,
0009,
0014,
fffc,
0000,
fffd,
0021,
0011,
ffdd,
0002,
0030,
ffd6,
ffec,
0000,
001e,
0027,
0004,
ffda,
0011,
fffb,
ffed,
ffdc,
002d,
ffe3,
ffdf,
000c,
ffd1,
0006,
ffdb,
ffea,
0029,
0008,
0012,
fffd,
000d,
0015,
ffe9,
0037,
fff1,
ffd7,
ffdb,
0022,
fffe,
fffd,
001b,
0030,
0003,
0003,
ffdb,
001e,
ffe9,
0016,
0034,
001e,
ffe5,
ffec,
ffed,
001b,
000c,
ffe3,
0022,
fff6,
ffdb,
0024,
ffec,
fffd,
ffde,
000a,
0024,
0002,
ffdd,
000f,
000e,
ffee,
ffe6,
0009,
0005,
002c,
0012,
ffd6,
ffe6,
0007,
001e,
0026,
0009,
ffee,
0009,
0001,
0004,
0009,
0029,
fff1,
fffc,
000a,
fff0,
0011,
ffbe,
ffe6,
0007,
ffee,
0005,
0052,
0022,
0031,
ffee,
0002,
000c,
ffea,
ffc0,
ffd5,
ffea,
ffec,
0001,
0023,
ffcb,
0052,
ffc4,
fffc,
000d,
ffca,
ffd7,
0059,
0007,
ffe7,
0016,
ffd4,
ffd6,
ffce,
ffec,
ffc1,
0019,
0023,
0003,
fff3,
ffc6,
0023,
0011,
0011,
0002,
ffde,
ffd0,
001e,
fff7,
ffd8,
ffeb,
0000,
0002,
ffd2,
ffc8,
ffff,
000d,
001e,
001d,
0023,
fffd,
0014,
fffd,
ffd9,
ffe5,
0001,
fff3,
003a,
001a,
0012,
000a,
ffc6,
ffde,
ffe6,
fff5,
fff4,
000b,
0029,
0022,
0021,
000b,
ffcd,
fff4,
ffed,
0006,
fffe,
ffe9,
ffef,
ffc7,
0041,
003f,
0018,
fffb,
ffcc,
ffcc,
ffda,
fff7,
0019,
001d,
0018,
0010,
002d,
0024,
ffe1,
fffd,
0000,
ffea,
fffb,
0002,
ffe7,
fff1,
0008,
ffcf,
ffbb,
fffc,
ffb4,
ffee,
0003,
fff5,
0042,
0026,
0019,
0018,
0000,
ffd3,
fffd,
fffa,
0018,
0002,
0056,
0033,
0005,
ffde,
000b,
0004,
000f,
0026,
0015,
004b,
fff5,
ffec,
ffd0,
0013,
ffee,
000c,
0036,
002c,
fffc,
ffd3,
0041,
fff3,
0015,
002c,
003f,
ffe4,
0011,
ffea,
0011,
ffee,
ffb2,
006e,
ffae,
0060,
0001,
001f,
003c,
003a,
ffc5,
0041,
0006,
001f,
ffd5,
0066,
ffd9,
fff6,
fff0,
fffb,
ffa1,
0007,
fffb,
0034,
fffc,
ffdc,
ffd3,
000b,
000b,
0009,
fff8,
0000,
002a,
0025,
0006,
000b,
fff8,
ffe8,
0004,
0020,
0016,
0007,
001c,
fffc,
ffe1,
ffe1,
fff8,
001d,
0015,
ffdf,
fff8,
0002,
0018,
0006,
0012,
0016,
fffd,
fff6,
ffd7,
ffe8,
0041,
0020,
ffed,
0013,
ffe7,
fff2,
ffce,
ffee,
0038,
000c,
000f,
0010,
0005,
fffa,
ffe1,
001a,
ffee,
0010,
ffe2,
002c,
fff7,
0001,
fff0,
0013,
0003,
0012,
fff2,
000f,
0021,
ffdc,
000b,
0017,
000e,
fff4,
fffd,
fff7,
0008,
000c,
001d,
000d,
0003,
0022,
fff7,
fff3,
0013,
000d,
fffb,
ffeb,
fffb,
fff9,
0034,
ffff,
fff5,
0021,
fff7,
ffcf,
0008,
ffd4,
000a,
0001,
0035,
001b,
ffe2,
0007,
ffd3,
ffc9,
ffd4,
0029,
0033,
0014,
0018,
fff2,
0025,
ffe6,
ffe5,
ffe9,
002a,
ffe0,
ffcf,
fff7,
0029,
fff2,
0015,
0015,
ffd8,
0013,
0008,
ffd9,
0004,
0026,
0012,
000a,
ffe3,
0006,
0011,
ffea,
ffe1,
0000,
ffe1,
fff8,
0029,
ffdb,
0005,
ffdf,
fff1,
0014,
ffcf,
0007,
001c,
ffea,
fff7,
0011,
0008,
ffe2,
ffdb,
ffe9,
ffe1,
ffee,
fffc,
0004,
003f,
0018,
0015,
fffc,
001b,
ffdd,
0015,
0014,
0019,
ffe8,
0021,
0019,
0006,
0007,
002e,
ffef,
fff9,
0014,
0004,
ffcd,
ffd9,
ffd4,
ffd0,
0010,
fff4,
fffc,
fff6,
0011,
0001,
ffe0,
ffef,
ffe3,
0002,
000a,
ffe3,
0021,
0003,
0003,
0013,
0004,
0026,
0017,
0024,
001c,
ffd9,
ffda,
001e,
ffe4,
fff8,
fff7,
fff5,
fff8,
0002,
0039,
fffe,
001d,
ffe9,
0017,
0020,
ffd8,
0015,
000b,
ffd3,
ffee,
ffe5,
0027,
0002,
ffd9,
ffce,
fffd,
0006,
fffb,
0006,
001f,
001c,
ffe2,
ffdf,
0007,
ffe4,
000e,
0006,
001c,
001d,
ffef,
0018,
0028,
0017,
0003,
001d,
fffd,
ffe2,
0010,
ffde,
ffe7,
0006,
0028,
fffc,
0004,
ffe9,
002b,
fff2,
ffd7,
fff1,
0013,
fff8,
0002,
ffe9,
ffec,
fff2,
fffc,
fff5,
fff0,
ffe7,
ffec,
fffd,
fff1,
000a,
0013,
000b,
fff3,
0000,
ffbf,
0018,
0030,
fffd,
ffef,
fffd,
ffdf,
fff2,
001e,
0019,
000c,
fffe,
fff6,
ffde,
fffe,
0029,
fffd,
fff4,
ffc8,
0038,
ffbe,
ffff,
001a,
ffe3,
0018,
0009,
001e,
fffb,
ffed,
0002,
fffb,
000d,
ffec,
0022,
ffe8,
001c,
000a,
ffd6,
0037,
ffee,
0008,
ffe6,
0017,
001e,
fffc,
fffc,
0009,
fff0,
ffd5,
0010,
003e,
ffc7,
ffe0,
ffd2,
002b,
ffac,
ffe6,
ffea,
001d,
fff5,
0027,
0050,
ffa9,
000d,
ffdd,
0032,
ffef,
ffea,
ffff,
0023,
ffdc,
000f,
fffe,
0044,
ffa8,
ffde,
0003,
0015,
ffca,
002d,
0022,
0009,
ffb4,
ffb1,
ffef,
0020,
ffcf,
001a,
0009,
0018,
ffdc,
0014,
0026,
ffc8,
0013,
ffe0,
0002,
fff6,
0031,
001d,
fffc,
fff8,
fffd,
fff9,
ffed,
0026,
fff5,
002a,
0023,
fff8,
0002,
0023,
0031,
ffea,
0036,
ffd7,
0019,
0005,
ffe6,
0007,
0018,
fff6,
0000,
0008,
0000,
ffd1,
ffeb,
0003,
0035,
ffd7,
ffe3,
0010,
ffff,
0028,
ffe5,
fff9,
004d,
0021,
0032,
ffe2,
0013,
fffc,
000b,
fff4,
0008,
ffdf,
ffe0,
0006,
0006,
fff1,
fff0,
0009,
fff5,
ffd1,
fff2,
fffb,
0024,
ffec,
0013,
ffdd,
ffd2,
ffde,
0006,
fffc,
001d,
ffd7,
fff5,
fffe,
ffff,
001d,
ffeb,
ffd1,
fff6,
ffa1,
0018,
fffb,
ffe6,
000a,
ffe7,
0045,
ff9b,
003a,
0043,
0017,
ffba,
ffdc,
ffd5,
fffd,
000c,
fff0,
0015,
0026,
ffd2,
ffdd,
0020,
0030,
0014,
fffb,
ffd0,
000f,
fff3,
0027,
ffed,
ffe4,
001f,
ffd8,
fff9,
0039,
0007,
0026,
ffeb,
ffb8,
ffcd,
ffc0,
000a,
ffd4,
ffc1,
ffd6,
0040,
0006,
ffc0,
0016,
fffb,
0039,
0010,
ffc7,
ffce,
0002,
ffb8,
0019,
0028,
ffc9,
fffd,
ffb3,
001c,
ffd3,
ffcb,
ffe0,
0051,
0026,
0023,
0039,
ffa3,
0064,
ffea,
0043,
fff0,
ffec,
ffb6,
fff8,
ffca,
0007,
ffee,
0016,
ff93,
0035,
ffdd,
000b,
0001,
0024,
001d,
0009,
ff96,
ffe6,
fff1,
fff2,
0002,
0002,
000f,
fffd,
fffb,
001a,
fff1,
ffe4,
0016,
001e,
ffde,
0003,
002a,
0038,
ffd5,
0017,
002c,
ffdd,
001c,
001c,
0008,
001e,
0017,
fffa,
002d,
0013,
ffdf,
ffd5,
0029,
0007,
0023,
ffd5,
ffe8,
fff4,
0002,
ffca,
0041,
ffeb,
001a,
ffdd,
ffdb,
ffde,
ffff,
fff4,
ffe2,
fffc,
0010,
002b,
0027,
fff8,
0012,
ffd6,
0002,
0001,
ffff,
fff6,
fffb,
ffe9,
000b,
ffd4,
0017,
0008,
0014,
ffef,
fff2,
ffd9,
0002,
ffe1,
ffff,
fff8,
0003,
ffec,
003b,
001e,
ffc9,
0012,
ffe7,
0018,
ffe7,
ffdf,
fff7,
000a,
001b,
ffe3,
0016,
ffe0,
ffbb,
ffd2,
0026,
0030,
ffc8,
ffdf,
0017,
0015,
ffd5,
fffb,
fffe,
0019,
000c,
fff5,
0002,
0024,
003c,
000e,
ffe4,
fffd,
ffd7,
0013,
0012,
0025,
001c,
0001,
0008,
ffef,
ffee,
fff9,
0017,
ffe2,
0003,
000c,
ffe1,
0030,
0009,
001d,
ffde,
ffe8,
0003,
000a,
0013,
fffa,
ffd7,
0008,
001f,
000d,
0000,
ffe8,
ffe6,
004a,
0020,
0001,
ffef,
ffe2,
ffc6,
fff4,
fffb,
ffd7,
0025,
fff6,
0016,
ffc9,
ffe7,
ffe0,
002a,
ffe5,
0039,
0013,
ffcd,
0028,
ffe0,
002c,
0018,
0002,
0008,
002b,
ffed,
0029,
fff5,
000c,
ffbb,
001d,
000a,
0024,
fff2,
0006,
001c,
0005,
ffee,
ffcb,
000f,
fffe,
ffe2,
fffc,
fff7,
fffc,
ffde,
0014,
000b,
ffe1,
ffee,
0009,
ffeb,
0002,
0007,
0010,
ffe5,
0002,
0004,
0001,
ffff,
ffd9,
ffe1,
fff7,
fff3,
ffe6,
000c,
001d,
0022,
fff3,
fffc,
ffd3,
ffee,
0004,
ffe7,
ffff,
000d,
000b,
fff6,
ffe3,
0018,
ffce,
fff8,
0028,
002b,
ffff,
0024,
ffe6,
0029,
ffd2,
0029,
ffde,
fff2,
0016,
fff9,
0023,
0027,
ffda,
ffdb,
000a,
0011,
fffd,
ffed,
ffe9,
0021,
ffcf,
ffdd,
0012,
0022,
ffdc,
0027,
000c,
0011,
0023,
0004,
ffd9,
ffec,
0019,
fffd,
0000,
001f,
ffbe,
ffe4,
002d,
002a,
000a,
0020,
fff2,
ffe1,
fff2,
000a,
ffdd,
ffcf,
000c,
ffe5,
0032,
ffe9,
003a,
ffec,
ffce,
ffd6,
fff2,
ffd6,
0025,
fff9,
0007,
ffe3,
0011,
ffd7,
0010,
fff9,
0016,
fff8,
0018,
ffed,
fff2,
ffdc,
ffe3,
0002,
0007,
ffe3,
ffcc,
001f,
0025,
0036,
0014,
ffde,
fff7,
ffda,
fffc,
0023,
ffdd,
ffe0,
ffc4,
fffe,
fffc,
ffde,
0024,
002b,
000b,
0017,
fff6,
ffe1,
001e,
0000,
fff4,
002c,
ffec,
ffda,
ffee,
ffff,
ffc4,
0013,
ffc5,
0024,
ffd2,
ffe5,
0020,
fff3,
0027,
ffd6,
001e,
0005,
ffd3,
fff6,
001b,
0002,
002a,
0010,
0024,
ffc8,
fff5,
ffd8,
001c,
ffd1,
ffe5,
0033,
0019,
ffc7,
ffe2,
001c,
002e,
002f,
ffed,
0024,
0014,
001c,
0009,
ffe9,
0016,
0024,
ffff,
0033,
001c,
0019,
ffed,
ffd7,
001c,
0000,
ffed,
002f,
0002,
001b,
000b,
fffa,
fff7,
fff1,
0001,
ffe3,
001f,
0028,
fff9,
001e,
0012,
0016,
fff0,
ffeb,
0015,
fff7,
ffd0,
002c,
ffeb,
0004,
0010,
0011,
ffcc,
ffe6,
0020,
fffb,
001a,
002c,
000c,
ffff,
0015,
ffe2,
ffc1,
0016,
0003,
fffc,
fff7,
0026,
fff2,
0020,
ffe2,
0024,
ffd4,
ffeb,
fffc,
0009,
000b,
fffe,
fffc,
fff1,
ffde,
0008,
ffdb,
0004,
ffe5,
ffff,
fff8,
ffdc,
001c,
0017,
ffe9,
fff4,
fff1,
0022,
ffde,
001c,
ffdb,
0029,
ffe2,
ffec,
001d,
ffe7,
ffe7,
001a,
0010,
fff7,
ffdb,
fff2,
fff1,
fff5,
ffec,
fffb,
0004,
ffeb,
0004,
0026,
0020,
ffee,
002b,
002a,
0012,
ffe9,
ffef,
0027,
ffe9,
0017,
ffe8,
ffde,
ffe9,
ffdc,
ffea,
003b,
001a,
ffee,
fff8,
ffff,
001e,
001f,
0000,
fffb,
ffd1,
000d,
ffea,
ffcf,
ffe5,
0013,
002c,
0001,
ffda,
ffdc,
ffd0,
ffe2,
ffed,
ffde,
ffda,
0021,
ffd4,
0003,
ffc3,
fffc,
0029,
0016,
0017,
fff3,
0039,
ffca,
0000,
ffd4,
fff5,
0014,
fff2,
ffdd,
0005,
ffe7,
001e,
0005,
ffe2,
000c,
0018,
0004,
0004,
ffef,
0018,
ffeb,
0003,
ffd4,
ffdf,
ffd8,
ffeb,
0019,
0015,
0005,
fffd,
000d,
ffe1,
fffb,
fffe,
0017,
0004,
fffd,
0001,
000b,
0015,
fff1,
fffd,
0014,
ffcf,
002d,
002a,
0032,
0023,
0012,
ffe7,
001f,
fff3,
0016,
0002,
004f,
000e,
0023,
000a,
ffde,
ffd7,
000e,
ffd2,
005a,
ffd8,
0037,
ffdd,
001b,
0031,
fff5,
0015,
0002,
0016,
0003,
000f,
0027,
001c,
fff7,
ffcc,
002e,
000a,
0003,
ffec,
002e,
0001,
fffc,
fffe,
0007,
000d,
fffb,
0030,
ffe6,
0013,
001d,
ffff,
fff6,
ffd3,
ffd6,
ffd1,
0006,
fff4,
0008,
fffb,
0010,
fff4,
ffd1,
fffe,
000f,
ffe7,
0028,
fff1,
0008,
ffe3,
ffbf,
ffec,
ffed,
0032,
ffc9,
ffd9,
ffff,
0035,
ffb5,
ffe0,
000f,
fffb,
ffea,
fff8,
0013,
0006,
001c,
000c,
fff5,
0029,
ffd8,
fff9,
0048,
0009,
0008,
fff7,
ffee,
ffe8,
002b,
ffdf,
004d,
0020,
ffd2,
0004,
001d,
fffd,
fffc,
001d,
ffd8,
ffc0,
ffde,
ffe5,
0022,
001b,
ffe5,
0007,
fffa,
ffe5,
000f,
0001,
ffff,
0021,
001b,
0018,
0006,
000f,
0008,
0005,
fff6,
ffdc,
ffea,
ffe1,
ffcb,
ffd0,
0002,
0004,
0007,
001c,
0015,
0003,
ffc0,
0033,
ffec,
fff3,
ffe8,
ffd4,
ffdd,
0043,
ffe3,
0021,
fff5,
0001,
fff7,
001c,
ffc9,
ffd7,
ffcb,
0037,
001e,
001e,
ffe9,
ffdf,
ffcf,
ffe1,
000b,
0019,
fff5,
ffea,
ffeb,
ffdd,
fff1,
0028,
ffe2,
0029,
ffef,
fff2,
0013,
003f,
0000,
ffea,
001c,
ffe6,
001a,
ffe2,
ffe2,
003c,
001e,
ffd5,
0004,
fffa,
0025,
ffe6,
001d,
0007,
ffe2,
0029,
000e,
0031,
0044,
ffe6,
0044,
ffcf,
001c,
fff0,
ffff,
ffe1,
000f,
0003,
ffed,
0013,
000f,
ffeb,
002d,
0003,
001c,
0013,
fff1,
ffd4,
0034,
0011,
000d,
001b,
ffde,
0024,
0023,
0001,
0005,
002b,
ffec,
0004,
0028,
fffb,
ffe8,
0002,
0015,
0014,
0018,
0026,
fff9,
0008,
0017,
000d,
fff6,
ffd2,
000d,
ffe4,
001e,
001f,
0008,
ffc3,
ffd6,
ffcf,
ffcc,
001d,
fff4,
ffe3,
ffd2,
0040,
ffad,
0034,
003c,
0001,
ffe1,
ffff,
002a,
ffe8,
003b,
0000,
0016,
fff2,
ffe3,
ffdc,
fffa,
004a,
fff4,
0028,
ffd6,
ffd9,
ffee,
ffc8,
0027,
ffdf,
001e,
0020,
ffe3,
0001,
ffe4,
ffe4,
ffec,
fff8,
000b,
fff8,
001a,
ffc6,
ffe6,
ffd9,
0031,
ffc5,
001e,
ffc7,
0007,
0068,
ffd9,
ffd8,
ffda,
fff9,
ffe1,
0006,
0023,
ffdd,
ffdd,
ffc2,
ffdb,
ffa8,
ffc7,
ffc3,
fff0,
0031,
002f,
0024,
ff86,
005f,
ffb8,
0014,
fff0,
000a,
ffec,
0041,
fff7,
000b,
ffe2,
0033,
ff99,
0032,
ffcd,
ffe9,
ffc5,
0009,
ffda,
fff0,
ffa3,
ffc8,
ffe4,
000f,
fffc,
001e,
0024,
0001,
0003,
0018,
fff5,
fff3,
ffdf,
fffb,
0000,
fff5,
fff3,
0028,
002c,
fff9,
0010,
ffb0,
ffdd,
0014,
0001,
0025,
000c,
001d,
001d,
fff7,
0006,
001f,
ffed,
0020,
fff0,
002a,
fff0,
002b,
0005,
ffaf,
0032,
ffd9,
0033,
ffee,
ffff,
0010,
000e,
ffdc,
ffec,
0033,
0021,
ffd9,
003a,
0012,
0019,
ffe2,
0030,
fffd,
0043,
000d,
001b,
ffea,
000a,
0022,
ffda,
0029,
fff9,
ffde,
fff4,
0026,
ffde,
ffec,
0022,
fff4,
0024,
ffe5,
0026,
ffe2,
0005,
ffff,
0013,
0005,
ffc9,
ffdd,
fff4,
ffcb,
0036,
0027,
0021,
ffd5,
ffda,
ffc8,
0002,
0037,
ffce,
0016,
ffde,
0045,
ff9f,
003e,
002f,
001e,
ffd8,
fff7,
0006,
0002,
0020,
0014,
0023,
0008,
ffa1,
ffec,
001c,
002e,
ffed,
fff2,
ffe5,
0015,
ffb3,
ffdf,
0019,
ffe8,
0016,
ffce,
0023,
fffc,
fff6,
0007,
ffca,
fff8,
002a,
fff9,
0006,
ffd0,
fff1,
ffd8,
000b,
fff8,
ffe2,
000b,
ffff,
0036,
001c,
ffdd,
ffdc,
fffa,
ffe6,
002d,
0016,
ffdd,
ffe9,
fff3,
0011,
ff93,
fffa,
ffc2,
0014,
0027,
0010,
0043,
ffcb,
003e,
ffe4,
0042,
0020,
ffbe,
ffb8,
0013,
ffd2,
ffff,
fff3,
0049,
ff8b,
0026,
ffeb,
fffc,
ffda,
0022,
ffff,
000b,
ffca,
0039,
ffe7,
fff3,
fffd,
ffec,
0011,
000f,
0018,
fff7,
0018,
ffea,
ffc9,
000c,
000b,
fff3,
0004,
001f,
0008,
001d,
ffd9,
0038,
0003,
ffcf,
0007,
000a,
ffff,
0024,
fff6,
000a,
fff2,
ffd2,
0011,
0003,
ffe0,
ffc5,
fff9,
0039,
ffc2,
0033,
fff2,
0028,
fff4,
0000,
0024,
ffec,
ffd7,
fff5,
fffc,
fff5,
ffee,
000e,
ffcc,
ffe6,
ffd2,
001c,
0003,
000d,
0014,
0013,
0004,
fff2,
fffc,
fff9,
fffd,
0003,
0000,
000b,
001f,
002b,
0036,
0031,
ffd9,
ffda,
0000,
0012,
ffe3,
ffd4,
0006,
ffe1,
fffa,
0005,
ffe3,
002f,
0005,
ffd7,
ffda,
0017,
0008,
0007,
002b,
0034,
0006,
fff5,
0025,
0024,
0014,
fff1,
0020,
ffeb,
ffdd,
fff9,
0035,
001f,
000d,
0038,
ffef,
ffd8,
0001,
fff9,
001f,
0020,
fff9,
0005,
ffd4,
ffe0,
0024,
fffb,
fffe,
ffd8,
0008,
fff0,
0005,
ffd8,
ffcc,
ffed,
ffef,
ffd0,
000f,
fff6,
ffed,
ffca,
ffe0,
0001,
fffa,
0002,
fff5,
0023,
ffd6,
0016,
001b,
fff0,
0006,
0011,
001a,
0015,
002b,
fff3,
000b,
fff8,
ffe9,
001d,
002e,
0009,
ffec,
fffd,
ffcd,
0020,
0000,
ffd6,
001c,
0011,
000e,
fff0,
ffe4,
000f,
0005,
fffc,
002a,
0004,
fffb,
0003,
fff5,
0007,
fff0,
ffe0,
0028,
ffd8,
ffbf,
ffe4,
002c,
fff4,
0009,
ffe4,
0020,
0008,
ffe6,
ffe2,
fff1,
ffec,
fff9,
fff3,
0003,
0005,
fff7,
001a,
0024,
0001,
fff2,
ffda,
ffe1,
ffee,
0000,
0005,
0003,
001b,
ffef,
0024,
0002,
fff7,
000d,
0019,
0003,
0001,
0009,
001e,
000f,
000c,
0012,
ffdd,
0023,
0003,
ffd8,
ffe6,
ffea,
ffdf,
0023,
0006,
fffa,
0026,
ffe5,
0015,
ffde,
ffe7,
0011,
fffe,
0018,
ffe8,
000a,
ffeb,
0019,
000a,
fffb,
000b,
fffb,
0005,
ffd1,
0018,
0014,
ffe9,
0002,
ffea,
ffe0,
ffc8,
ffe1,
0026,
0017,
ffe8,
002a,
0015,
001b,
0025,
001b,
0015,
001d,
ffe4,
ffe5,
fffa,
001b,
001b,
fffd,
0018,
ffe5,
ffe5,
000c,
0019,
0004,
0006,
0033,
0006,
fff5,
000b,
0018,
fff5,
fff4,
ffe1,
ffe2,
0013,
0024,
ffe9,
fffe,
0014,
ffed,
0005,
ffda,
ffe7,
fff8,
0002,
001e,
ffe7,
fff8,
fff6,
001c,
000d,
ffd8,
0018,
ffeb,
0021,
ffec,
002a,
ffdc,
fff1,
002f,
fffb,
fffc,
0012,
000c,
000b,
0019,
fff4,
0012,
ffd6,
fffc,
0030,
0025,
fff3,
0023,
0017,
ffcf,
0029,
0003,
ffe1,
002c,
003d,
fffe,
fffe,
fffe,
fff1,
0012,
fff1,
004e,
ffd6,
0015,
ffe4,
0029,
0018,
0038,
fff8,
000a,
ffed,
fff9,
fff6,
0042,
ffde,
001e,
ffc9,
002a,
ffd7,
fff7,
ffdd,
0006,
0009,
0013,
002f,
0001,
fffd,
0008,
0010,
001b,
ffff,
fff0,
0032,
0008,
0002,
fff0,
ffe3,
ffcf,
0006,
ffc0,
0013,
ffe5,
fffd,
fff3,
0022,
002f,
0011,
0018,
ffe4,
0019,
ffe0,
001d,
0027,
0018,
fffa,
001a,
ffe6,
ffda,
ffd0,
ffd7,
ffc8,
0035,
ffd7,
0001,
002d,
0007,
fff0,
ffe6,
0001,
0011,
fff2,
fff9,
0016,
0027,
0025,
0012,
0017,
fffd,
fff4,
ffee,
fffb,
fff1,
0030,
fffb,
002f,
000b,
fff3,
0018,
ffff,
ffd5,
ffeb,
fffc,
fff2,
0021,
0002,
0009,
0004,
ffda,
ffe3,
0015,
ffe7,
0012,
ffe9,
ffea,
ffe5,
000e,
0019,
fffa,
001b,
ffdf,
ffbc,
fff3,
0016,
ffc8,
0028,
0009,
ffda,
fff4,
002d,
ffd4,
ffe0,
ffff,
0008,
0002,
002e,
ffe9,
0036,
0006,
ffe9,
fff5,
0027,
000e,
0001,
0004,
001d,
0024,
000e,
001c,
0011,
0001,
ffb8,
0021,
ffe3,
0013,
0038,
001c,
0005,
0034,
ffeb,
ffee,
0012,
003a,
0001,
fff0,
0001,
002a,
fffb,
ffd0,
fff2,
ffeb,
fff9,
001e,
fffa,
ffe0,
002f,
0003,
fff9,
ffcd,
0020,
ffe2,
0011,
002b,
002c,
0012,
ffd0,
001e,
000a,
ffda,
0002,
0034,
fff0,
ffb1,
fff4,
ffc3,
000e,
ffd4,
fffe,
0016,
0026,
ffd5,
fffa,
0016,
ffed,
fff4,
ffe6,
ffd0,
ffd8,
0003,
0044,
001f,
0033,
fff2,
0031,
ffd7,
0024,
0025,
0010,
fffe,
000d,
001c,
ffce,
0016,
ffe5,
000f,
0011,
0014,
ffef,
ffe3,
fff7,
ffd9,
0021,
0000,
ffef,
0025,
ffdc,
000d,
ffeb,
ffe6,
0001,
000d,
ffee,
ffe0,
fffd,
001b,
ffe7,
001f,
0024,
0007,
ffbf,
ffe8,
fff1,
fff9,
001c,
000e,
0026,
ffe9,
0027,
ffe5,
0018,
fffd,
ffd6,
fff1,
0004,
fff6,
001b,
fff0,
001b,
ffe0,
0006,
fff6,
fff5,
000d,
0033,
ffe8,
002d,
0014,
ffd3,
ffd2,
0023,
ffe0,
0018,
ffea,
0037,
001d,
ffe6,
fff5,
fff8,
fffe,
0015,
fff9,
000a,
ffc4,
fff1,
ffe0,
0026,
fff4,
0009,
ffd4,
ffea,
ffce,
fffb,
000a,
002c,
ffe0,
0004,
000f,
0027,
ffea,
ffdd,
0028,
ffd8,
ffca,
fff3,
000b,
fffe,
0001,
ffef,
000f,
fff3,
fffc,
fffd,
0017,
0027,
001e,
0010,
fffc,
ffd4,
002c,
ffca,
0017,
ffd4,
ffed,
0012,
ffff,
fff3,
ffe6,
ffcc,
0008,
0003,
0017,
fffd,
0004,
001d,
0008,
ffe5,
0040,
003a,
0003,
ffd5,
0020,
0018,
fff9,
0016,
0013,
0027,
ffe6,
001b,
0008,
ffce,
fff3,
ffe9,
001b,
0033,
fff6,
002e,
0017,
0029,
ffdb,
ffd8,
ffde,
ffb9,
fffc,
ffcf,
0000,
ffc1,
ffd4,
0007,
fff5,
0022,
ffea,
fff2,
ffff,
fffa,
002c,
0001,
0021,
ffea,
fff3,
002f,
000b,
ffea,
001e,
002a,
ffdf,
0012,
ffe4,
0023,
0010,
001e,
fff4,
ffcb,
0016,
0031,
ffdc,
ffe3,
0010,
fff3,
ffdd,
001d,
0013,
ffea,
ffd5,
ffdd,
0023,
0010,
002d,
fff0,
0004,
fffe,
ffe8,
ffe0,
0003,
000a,
001b,
0011,
0012,
fff5,
0006,
ffce,
fff2,
0005,
000c,
ffcd,
002a,
fff3,
0024,
0034,
ffe9,
000c,
ffe2,
000f,
000d,
0009,
001c,
ffff,
0011,
ffff,
0007,
ffd0,
0022,
ffff,
0038,
002c,
0022,
ffe7,
ffee,
ffe3,
ffda,
fff6,
ffe2,
001c,
003c,
ffed,
ffec,
fff4,
fff5,
fff1,
0027,
0006,
0022,
000f,
ffeb,
ffef,
0010,
fffc,
fff4,
0005,
0012,
001a,
ffee,
fffd,
0028,
ffe3,
ffef,
0007,
ffd3,
fffe,
ffeb,
ffeb,
001b,
0011,
0029,
fff1,
0010,
0032,
0020,
0008,
ffe4,
0006,
0011,
0041,
003d,
0009,
fff7,
0005,
ffde,
0007,
0028,
ffcd,
0011,
ffdd,
0035,
ffde,
ffd1,
0009,
0005,
0002,
0029,
0015,
fff6,
ffe9,
fff4,
ffdb,
ffe5,
ffec,
0003,
ffef,
fff8,
001c,
ffd4,
ffed,
000a,
0026,
ffcd,
002c,
ffec,
0021,
ffdd,
0017,
ffd0,
ffec,
ffdd,
ffff,
0014,
002c,
ffd4,
0004,
001c,
fff5,
ffed,
fff5,
0008,
ffec,
000e,
000c,
000b,
0042,
0027,
ffe3,
ffec,
0008,
0010,
ffef,
fff0,
002b,
fffc,
ffff,
fff1,
000a,
fff2,
ffea,
0034,
fff6,
fff3,
001b,
ffe4,
ffeb,
fff3,
0025,
001a,
ffe0,
000a,
002c,
ffe2,
ffcd,
fff6,
fff7,
0017,
ffd7,
ffdf,
0002,
ffd9,
fff3,
000d,
ffd0,
ffe8,
0014,
001d,
fff7,
ffd5,
ffec,
000b,
000c,
ffde,
0018,
ffd1,
ffde,
fffc,
fff1,
ffcf,
0013,
ffcb,
ffd0,
0006,
000d,
fffc,
0017,
0020,
0025,
000b,
ffe9,
ffbe,
ffe4,
ffda,
ffdd,
ffc5,
ffd0,
0025,
fff8,
ffb1,
0028,
fff8,
0009,
fff5,
fffe,
fffc,
0007,
0022,
ffe9,
0009,
ffd2,
fff8,
fffe,
0017,
0019,
0021,
fff1,
0009,
0002,
fff4,
000a,
000b,
000c,
0002,
0035,
0009,
0002,
ffe2,
ffd4,
ffde,
0006,
002b,
002c,
ffea,
0007,
001a,
fff6,
ffed,
001d,
0000,
ffe5,
000d,
001f,
0017,
fffc,
0015,
fffe,
fff6,
ffd8,
ffef,
fff7,
002b,
fff6,
fff7,
fff9,
001c,
fff5,
002b,
ffe8,
0006,
000f,
ffd3,
0016,
ffe2,
0033,
ffdd,
ffe5,
fffa,
000d,
ffee,
0008,
ffdd,
001e,
0010,
001c,
001a,
0029,
fff2,
0009,
ffd2,
0004,
ffda,
ffd5,
ffb8,
fffa,
fff4,
001d,
0002,
000f,
ffee,
0004,
ffdc,
fff1,
0013,
001b,
0010,
fffe,
0006,
001c,
ffae,
ffd3,
fffe,
ffc6,
fffd,
ffc2,
ffdc,
0024,
0046,
000e,
000b,
ffff,
ffe1,
ffd0,
0008,
0038,
0027,
001f,
fff8,
0003,
ffbc,
0017,
0040,
0053,
ffed,
ffde,
fff0,
ffb8,
ffe2,
0028,
0016,
004a,
ffeb,
fffa,
0026,
0012,
ffe0,
ffe6,
0009,
fff6,
001a,
ffe7,
0018,
0017,
0019,
0000,
0020,
ffda,
000f,
0039,
fff6,
0005,
fff7,
0006,
fff8,
fff6,
001e,
0028,
ffdd,
ffc6,
0013,
0004,
ffe1,
0022,
0012,
001a,
0014,
ffc8,
ffbe,
0014,
fff2,
000b,
0008,
003b,
ffd1,
0006,
ffe7,
003e,
fff3,
ffd5,
002c,
0011,
0000,
0036,
0002,
000b,
000a,
ffcb,
ffcb,
002c,
000b,
0027,
fff5,
fff7,
0013,
000f,
0008,
fff5,
ffc7,
001f,
002c,
0027,
ffd3,
0020,
000b,
0027,
002d,
0025,
000b,
0008,
0020,
0004,
0022,
0030,
fffd,
fffd,
ffdc,
fffe,
002c,
ffe4,
0064,
fff5,
ffd8,
0039,
000e,
0023,
0019,
ffe2,
ffb6,
0005,
0000,
ffed,
ffe5,
000f,
ffe3,
fffe,
fff7,
ffbf,
ffca,
0035,
ffe0,
ffe9,
0020,
ffd8,
0028,
fffe,
0007,
ffff,
0018,
0026,
0008,
005c,
0009,
ffe3,
0010,
0011,
ffd5,
0032,
0028,
0054,
002c,
004b,
fff9,
ff93,
0055,
002b,
0042,
0026,
fff9,
ffd2,
ffe4,
0068,
001c,
001b,
004f,
002a,
fff6,
0004,
ffd6,
ffa1,
000b,
ff92,
0073,
ffa0,
005d,
0001,
002b,
0023,
000d,
fff3,
0040,
0015,
ffff,
ffcf,
0062,
ffcc,
ffe8,
000a,
0036,
ffd5,
0032,
ffd5,
0037,
0001,
ffea,
ffd8,
0016,
ffe9,
0015,
fff7,
0015,
ffdb,
fff4,
0009,
ffdf,
ffd3,
0012,
ffe6,
0000,
ffbf,
0009,
fff1,
ffc6,
0025,
ffda,
ffea,
fffd,
0025,
0008,
fffd,
000f,
ffee,
000a,
0007,
0017,
0012,
0009,
000e,
0011,
0018,
fffd,
0028,
ffaa,
0022,
0019,
ffd6,
002a,
0012,
ffd9,
0003,
ffe5,
ffd3,
000f,
ffd3,
fff4,
0015,
0000,
ffdb,
ffe0,
fffd,
ffda,
0026,
ffdc,
fff1,
0020,
0010,
002e,
0015,
001d,
fffa,
0017,
ffdc,
ffe6,
fffd,
0017,
fff8,
ffee,
fff6,
fffb,
000b,
0005,
fff6,
ffd5,
ffe3,
001d,
003c,
ffeb,
0001,
fff2,
ffd2,
ffd9,
ffeb,
003b,
0033,
000a,
ffed,
0020,
002a,
0008,
ffe0,
001c,
0005,
ffdd,
ffe7,
003a,
fff1,
001f,
ffee,
ffe2,
ffd2,
ffee,
0030,
0054,
0008,
0004,
fff3,
ffd3,
ffe6,
002c,
000c,
0026,
0012,
ffea,
000a,
0000,
001d,
000d,
0017,
ffdb,
fff4,
000a,
fff7,
ffff,
0028,
001e,
0010,
001f,
ffea,
fff8,
000a,
ffe8,
0004,
fff2,
ffb6,
ffd0,
001d,
0017,
001d,
003d,
fff3,
ffbd,
ffed,
ffff,
0011,
ffd8,
0039,
ffef,
003d,
0006,
0018,
ffc6,
ffcc,
0011,
ffa7,
0019,
ffc9,
0002,
003a,
002c,
fff7,
001f,
0004,
0038,
ffeb,
0053,
000f,
001c,
002b,
0042,
ffc8,
0014,
ffdb,
002b,
0039,
0014,
fff6,
ffca,
fffe,
fffd,
ffe8,
0012,
004a,
0006,
0008,
fffc,
0003,
001a,
001e,
000f,
000b,
0032,
fff0,
0010,
004d,
ffc9,
0004,
000c,
ffb2,
0008,
fffc,
ffec,
0031,
0024,
ffe9,
ffda,
0016,
001b,
0017,
ffe4,
0029,
000c,
ffe2,
fff5,
0034,
fff3,
000a,
0024,
ffcf,
ffd3,
fff0,
0013,
ffe8,
0005,
ffff,
fff2,
fff7,
0015,
0034,
0017,
ffe9,
0004,
ffea,
ffe3,
002b,
ffd4,
fffa,
ffc8,
001e,
0025,
000c,
001a,
0043,
ffd1,
0004,
ffdf,
000a,
ffdd,
0009,
ffff,
0000,
0000,
0001,
0014,
000e,
0018,
0004,
001f,
ffe2,
001f,
fff8,
ffef,
0020,
0003,
ffe2,
ffde,
fff2,
ffe9,
ffd7,
0012,
fffd,
0018,
0015,
0021,
0008,
fff4,
0015,
000f,
0006,
ffe6,
0001,
0013,
ffb2,
ffd6,
fffe,
ffc5,
ffdf,
ffe9,
ffa4,
ffb6,
003a,
ffd2,
0044,
fff4,
0030,
fff6,
ffc5,
000b,
0008,
fff1,
0021,
ffee,
0002,
ffcd,
fffc,
0009,
000d,
fff6,
0003,
0024,
002c,
ffde,
001f,
0009,
fff6,
0040,
ffdb,
0013,
001d,
001d,
ffdb,
0032,
0047,
ffd5,
ffcc,
0016,
fff8,
0016,
fffd,
ffe4,
ffb3,
ffe8,
fff2,
0072,
0001,
004e,
003d,
0016,
ffef,
ffeb,
0003,
0035,
0006,
ffe2,
0037,
0038,
0016,
000c,
0010,
fff0,
ffe1,
0015,
000a,
004b,
000e,
ffc7,
ffdd,
000b,
ffdf,
0006,
0031,
0021,
0038,
fffa,
0018,
ffc7,
fff7,
ffd8,
0034,
000c,
005e,
001d,
fff2,
000a,
fff3,
ffe6,
fff4,
0018,
ffdb,
0017,
000a,
fff7,
0031,
0004,
0018,
ffe5,
0012,
fffb,
0003,
fff5,
002d,
0026,
ffce,
0029,
ffeb,
000f,
ffdc,
fff4,
fff9,
ffe5,
0031,
0026,
0030,
ffd5,
000d,
ffe8,
ffc9,
fff4,
ffde,
ffe6,
0032,
0054,
000d,
0014,
ffec,
ffc7,
ffeb,
ffd5,
000e,
ffdc,
0023,
ffe0,
0039,
ffe1,
fff6,
ffee,
000c,
ffda,
0001,
000d,
0016,
0023,
fff0,
fff5,
fffe,
ffe1,
ffa1,
0027,
ffd8,
fffb,
002c,
fffa,
fff9,
ffaa,
ffb5,
ffbe,
0034,
fff2,
ffc0,
ffdd,
0072,
ffac,
001e,
0038,
001f,
ffcb,
ffe5,
000e,
0007,
000e,
0031,
fff8,
ffb4,
ffb2,
ffea,
ffea,
0034,
0012,
ffe3,
ffad,
0027,
ff96,
002c,
0041,
fff1,
0009,
fffd,
0003,
0032,
ffe9,
fff5,
001a,
0016,
ffe9,
ffcf,
fffc,
ffc7,
ffe6,
fffa,
0022,
ffdd,
0002,
ffeb,
0035,
0009,
0023,
ffff,
0013,
fffc,
ffb4,
fffa,
000c,
0008,
ffd8,
ffcf,
0023,
ffae,
fff1,
ffb8,
fff4,
0016,
0012,
002e,
ffd7,
006d,
ffeb,
0021,
ffe5,
fff1,
ffb9,
0036,
fffc,
ffe1,
ffd0,
0016,
ffcc,
ffe2,
ffff,
ffad,
ffab,
0052,
0019,
000d,
fff3,
ffc4,
ffed,
0000,
fffe,
ffec,
0002,
ffc5,
ffd8,
ffe7,
000d,
0028,
001b,
003c,
0006,
ffe4,
ffed,
0001,
ffcc,
fff5,
001a,
ffeb,
0037,
000e,
0009,
000b,
ffe9,
ffd8,
0013,
ffe3,
0016,
fff1,
004f,
fffc,
ffff,
ffef,
001c,
0003,
ffe9,
ffdc,
000f,
ffe0,
001c,
000f,
0014,
ffec,
0030,
fff8,
ffe6,
000a,
000d,
ffe8,
0030,
fffb,
002c,
ffe1,
ffe2,
0018,
002a,
0021,
fffa,
000e,
fffd,
0029,
ffeb,
fff2,
001a,
0005,
0004,
000d,
ffef,
fff4,
ffe1,
0023,
ffe9,
ffd7,
0013,
001b,
ffec,
0006,
000a,
0006,
000d,
000d,
ffe9,
0015,
fff7,
ffee,
000b,
ffe7,
ffdc,
ffda,
0018,
0019,
ffe0,
000b,
ffed,
002c,
ffb3,
0035,
0028,
ffdc,
0020,
0003,
001d,
0008,
002d,
0009,
0026,
0001,
001c,
0006,
002c,
0026,
0026,
0008,
ffdf,
0026,
ffe1,
001d,
fffb,
001e,
0013,
ffeb,
0007,
0030,
0027,
0027,
000f,
000a,
0008,
001e,
0019,
fff3,
fffa,
ffd0,
fff9,
ffcc,
0012,
ffd4,
fff1,
0040,
fff8,
ffe9,
ffe4,
fff7,
fffc,
fff1,
0026,
ffd1,
ffe8,
ffe1,
0011,
ffda,
0007,
ffee,
000a,
001b,
0022,
fffe,
ffb5,
0058,
ffcb,
ffe8,
001a,
0003,
fff0,
000c,
0002,
ffd8,
0002,
0027,
ffd5,
001e,
ffd2,
fff5,
0003,
0055,
fffa,
0035,
ffdd,
fffd,
0024,
001d,
fffb,
0003,
001a,
ffee,
0011,
0023,
fff6,
ffdb,
fff3,
0019,
0016,
0003,
003c,
001a,
0026,
0032,
ffe0,
0014,
0002,
ffd6,
ffda,
ffe4,
fff5,
0019,
001d,
ffdf,
002c,
fff4,
0008,
ffce,
0002,
ffe8,
0014,
0001,
0000,
fff6,
0010,
fff9,
0011,
0003,
ffd1,
0014,
001b,
ffd0,
ffe8,
fff1,
ffef,
fff7,
002b,
001f,
0015,
ffec,
001d,
0015,
0014,
0013,
001b,
ffd0,
002b,
0000,
0024,
fff6,
002c,
ffe5,
0015,
fffa,
0019,
ffdd,
0003,
0031,
000d,
0013,
0009,
ffff,
ffcd,
ffd5,
ffec,
ffd6,
002c,
ffd9,
ffdf,
0019,
002d,
ffdd,
0011,
0010,
0000,
0008,
0015,
ffd5,
ffe3,
000f,
0033,
000e,
ffcd,
0006,
fff6,
ffee,
ffed,
0007,
000e,
fff8,
0047,
ffd9,
0022,
0029,
ffe7,
fff4,
0030,
0013,
0030,
ffe5,
ffd7,
000a,
fff4,
fffd,
0025,
ffe0,
0014,
ffd9,
0002,
fffa,
0026,
ffe2,
ffec,
ffc8,
0024,
ffd2,
000e,
fff4,
fff0,
fffc,
0024,
ffff,
ffc4,
fff1,
000a,
fffd,
0010,
ffdb,
ffe2,
001a,
fffa,
ffd6,
0013,
ffe3,
0019,
ffdb,
0026,
ffdd,
fffe,
0011,
0032,
ffee,
001f,
002e,
ffd3,
0000,
ffef,
000f,
ffda,
ffd8,
0027,
000f,
000d,
000c,
0024,
0032,
000e,
fffd,
002f,
0019,
0006,
ffd1,
0027,
0000,
fff5,
ffe6,
0001,
001a,
ffe0,
0021,
ffd8,
0011,
000f,
0029,
0013,
fff5,
ffe1,
0024,
0011,
fff5,
0021,
0033,
fffe,
fffb,
000e,
0010,
ffef,
fffe,
ffd8,
fff1,
000e,
ffee,
0002,
ffe4,
001f,
ffe4,
ffe9,
fff6,
fff3,
ffe2,
fff8,
0025,
0006,
0000,
0020,
ffe3,
fff9,
ffe8,
0007,
0035,
0023,
0010,
ffe6,
0017,
ffe2,
fff9,
0016,
fff8,
fff7,
0009,
fff5,
0019,
ffe0,
0003,
002f,
ffdd,
0012,
ffdd,
ffe4,
ffe9,
0022,
ffd8,
fff5,
ffe5,
0027,
0011,
001b,
000d,
0010,
0009,
ffff,
ffe4,
fff9,
0029,
ffd6,
0017,
0000,
0002,
000c,
ffec,
0028,
ffd3,
001d,
0018,
000c,
ffd1,
0027,
ffe4,
0014,
0024,
0021,
ffe8,
ffd2,
0023,
ffee,
fff4,
fff6,
0011,
0013,
0019,
001f,
fff2,
ffe4,
002b,
0010,
ffdc,
ffee,
001d,
0001,
0020,
000d,
ffee,
0004,
fffc,
002a,
ffd7,
ffdf,
0000,
0003,
003b,
fffe,
ffde,
001d,
ffe5,
ffc9,
ffd0,
fff5,
ffdc,
fff9,
ffed,
ffe8,
000a,
fffa,
fff2,
ffe8,
ffed,
0021,
000b,
fffd,
0000,
0028,
000f,
ffe9,
0012,
ffc5,
ffe5,
0029,
0000,
0007,
fff0,
fff7,
0019,
ffbe,
0026,
ffe4,
fff0,
0002,
0007,
ffe6,
000c,
002d,
0016,
0019,
000d,
ffe0,
0003,
0003,
0008,
fffa,
0002,
0004,
fff7,
ffda,
fffb,
fff6,
ffc4,
0002,
ffed,
001f,
0027,
fff1,
ffc8,
ffe7,
ffd3,
fffa,
0020,
0016,
000c,
ffff,
fffb,
0030,
fffd,
ffee,
000d,
0014,
ffd5,
fffa,
001c,
002a,
003e,
0037,
000a,
002c,
0000,
0019,
0003,
0047,
fff6,
0001,
0031,
0015,
0017,
fff8,
fff7,
0031,
ffd0,
0016,
fffd,
ffe5,
ffec,
0047,
ffd5,
002d,
0019,
ffe3,
ffe0,
0041,
0005,
0014,
ffe8,
0027,
0019,
0021,
ffe7,
ffe1,
ffeb,
000c,
ffee,
0004,
fff2,
0016,
fffb,
000e,
ffdc,
fffb,
ffe2,
0000,
ffea,
ffe8,
ffc8,
fffa,
0026,
ffde,
fff7,
001d,
0029,
ffdf,
ffe3,
000a,
000d,
fffc,
ffdd,
ffe3,
ffdb,
fff8,
ffa6,
0000,
000f,
ffd5,
000d,
0011,
0052,
ffb9,
004a,
000e,
ffd2,
ffda,
ffd3,
000c,
000b,
0012,
002a,
0027,
ffe7,
ffce,
ffd3,
0038,
fffd,
fff9,
0004,
fffd,
ffef,
0003,
001f,
fff8,
000b,
fffd,
0005,
fffb,
fffb,
001a,
0007,
ffed,
fff0,
0049,
ffe9,
0028,
ffda,
0018,
fff0,
0038,
ffbc,
0020,
0005,
0014,
0052,
001c,
ffd9,
ffea,
ffce,
fff9,
0023,
0040,
ffcc,
fff2,
ffc3,
ffd9,
ff91,
ffdc,
fffa,
0024,
003d,
0035,
0061,
ff95,
0035,
fff2,
0043,
0011,
ffd2,
ffca,
0037,
ffea,
0030,
fff2,
0026,
ff90,
0005,
fff5,
0024,
ffc2,
0002,
fffa,
fff6,
ffb7,
ffd2,
0014,
ffe8,
fff7,
0002,
0035,
ffd9,
001f,
0006,
000d,
0009,
0007,
fff2,
ffe4,
000d,
ffe3,
0016,
ffcf,
000b,
0031,
ffc1,
fffd,
fff5,
001e,
0000,
000e,
0014,
001c,
ffde,
0000,
ffeb,
fffb,
ffe6,
ffe3,
fff6,
0025,
000f,
ffe6,
000e,
0013,
ffd6,
ffd8,
ffe9,
0008,
0033,
001e,
0017,
ffe7,
fff8,
ffd7,
ffd6,
fff5,
0003,
ffe6,
ffeb,
ffed,
0017,
fff1,
0025,
0001,
000c,
0002,
0025,
0016,
0014,
ffdf,
fffa,
000f,
fff1,
0006,
ffed,
ffe6,
ffef,
0019,
ffee,
0022,
000d,
ffee,
fff0,
ffe0,
ffdd,
fff7,
0018,
0018,
ffdf,
0029,
0009,
001b,
ffe4,
001f,
001f,
0029,
ffde,
002e,
0021,
0020,
002b,
fff4,
fff5,
fffc,
fffb,
ffe1,
0024,
ffda,
ffdc,
ffe9,
fffe,
ffd8,
0022,
003f,
ffe4,
0019,
ffee,
0012,
fffb,
002b,
0007,
0024,
0027,
ffdd,
ffdb,
0014,
0024,
001c,
fffa,
000f,
ffe1,
fff5,
0005,
000f,
0005,
0025,
fff2,
fffe,
0016,
000e,
fff3,
ffef,
ffec,
0006,
fffa,
ffca,
0008,
0007,
fffc,
0009,
ffff,
ffdf,
fff7,
0006,
ffe9,
fffc,
ffdc,
fff4,
0017,
fff5,
003c,
ffd8,
0041,
ffda,
fffd,
fff6,
0021,
ffdd,
ffc5,
fffb,
0012,
000e,
fffc,
fffb,
0022,
000b,
ffee,
0024,
0012,
0014,
0003,
0001,
0039,
ffa6,
0025,
001b,
000a,
ffd9,
ffea,
0018,
ffdf,
ffe5,
ffef,
fff1,
ffeb,
000e,
0014,
0011,
0019,
0008,
ffe0,
ffec,
001d,
ffdb,
001c,
fff4,
ffd3,
ffdd,
ffeb,
0021,
0025,
ffee,
ffd7,
fff3,
fff1,
ffdb,
001d,
fff0,
ffd6,
fffc,
0047,
ffe0,
0030,
ffc2,
0006,
0004,
ffe7,
ffd2,
0019,
0023,
fff9,
ffe9,
0006,
ffcf,
ffce,
0004,
0011,
ffd9,
0006,
ffec,
003b,
ffc5,
0019,
ffd1,
ffe9,
000e,
ffe1,
0016,
0001,
ffe6,
0005,
0022,
0031,
0002,
ffe0,
fffe,
0025,
ffff,
fff7,
ffdd,
ffcf,
0022,
fffb,
fff7,
ffe7,
0039,
000a,
ffec,
ffdf,
ffe7,
fff1,
fffe,
0004,
0030,
0020,
ffe5,
fffd,
001d,
0036,
0003,
ffcd,
0000,
fff0,
ffe6,
0003,
0017,
fff0,
fff2,
ffdb,
ffe6,
0012,
0008,
ffef,
0013,
ffd7,
001a,
ffd5,
fff5,
001a,
0027,
0014,
001d,
004f,
fff0,
ffe4,
ffff,
0009,
0018,
ffe5,
ffd4,
ffd6,
ffe0,
0012,
0010,
fff7,
0015,
0004,
ffed,
0037,
fff5,
0006,
0008,
ffe3,
fffa,
fff6,
ffd0,
ffcc,
0001,
001f,
ffec,
ffdb,
fff5,
ffdc,
ffdd,
ffde,
fff3,
fffa,
0026,
fff4,
fff0,
0045,
ffe2,
fffc,
002d,
0014,
0025,
fffe,
fffe,
0017,
000b,
ffd6,
fff3,
0012,
0019,
ffea,
0003,
ffe5,
fff6,
000e,
0020,
0000,
0025,
0001,
fff3,
0023,
ffdf,
ffd9,
ffed,
ffd9,
ffdc,
ffd8,
0003,
0031,
fff0,
ffd6,
0017,
fffc,
0003,
fff5,
fff7,
fffc,
002d,
001d,
000c,
0015,
0002,
002d,
0001,
ffc7,
ffd6,
0007,
0022,
0029,
0017,
0029,
ffe7,
fffd,
fffe,
003f,
0003,
0007,
ffee,
0005,
ffea,
0024,
001b,
fff8,
0004,
ffd2,
000a,
ffc7,
001c,
ffeb,
fffd,
0023,
001f,
0011,
0009,
0003,
ffdc,
ffc4,
0035,
ffe7,
0009,
0008,
0013,
ffc7,
ffe0,
ffe7,
0023,
0004,
0020,
fff5,
ffc3,
ffe1,
0022,
0006,
fff2,
ffe7,
ffec,
002f,
fff8,
fffc,
0006,
002b,
001e,
0020,
001e,
fff8,
fff5,
0018,
001a,
0017,
ffff,
ffda,
ffde,
ffe0,
ffe9,
ffeb,
fff6,
0016,
ffdb,
fff4,
ffe0,
0040,
ffdd,
ffdb,
0011,
ffd1,
fff9,
fff7,
0022,
ffe6,
ffb8,
ffda,
000c,
fffa,
0010,
ffc7,
ffe7,
002c,
ffb6,
001e,
ffe1,
001c,
000f,
ffda,
0006,
0000,
0006,
ffed,
001a,
0030,
0022,
ffff,
0010,
ffce,
0015,
002f,
0014,
fff5,
0023,
fff6,
0011,
ffdd,
006b,
002e,
0020,
0009,
0016,
ffcf,
0009,
0004,
0038,
0008,
002b,
fffc,
ffee,
0012,
000f,
ffb3,
002e,
fff7,
002e,
fff7,
0040,
000d,
ffdc,
fff1,
ffde,
fffe,
0020,
000a,
0038,
000b,
000a,
ffdf,
0023,
fff6,
002b,
ffe3,
003b,
000b,
000a,
fff7,
0033,
0021,
fff7,
ffde,
ffdc,
ffdb,
002a,
0001,
fff4,
001f,
0002,
ffd6,
0006,
ffcd,
0016,
ffc4,
0020,
ffec,
fff2,
004c,
ffdf,
0020,
ffde,
0001,
ffce,
fffd,
0004,
000a,
0001,
fff6,
ffd1,
0018,
001a,
ffed,
fff3,
ffee,
ffbf,
0055,
ffc3,
0003,
ffe2,
0007,
0004,
0014,
fff8,
0013,
0015,
fff1,
ffda,
ffbf,
0012,
0031,
ffbb,
000b,
0012,
0005,
ffc2,
fff6,
0024,
ffd2,
0026,
003b,
fff7,
ffeb,
ffd3,
fff0,
001b,
ffff,
0016,
0018,
000c,
001c,
002d,
003a,
ffcc,
ffd2,
0003,
fffc,
ffcd,
ffdc,
002f,
002b,
0020,
0017,
ffc8,
ffe6,
ffe9,
0009,
0026,
006a,
0025,
ffec,
0012,
0020,
0036,
ffa4,
007f,
ffed,
ffa3,
003b,
0020,
0024,
ffd5,
ffeb,
ffec,
000b,
fffa,
0003,
0036,
fffa,
ffc1,
ffcf,
ffe0,
ffd3,
0034,
fffc,
001e,
002c,
ffb5,
0024,
fff2,
002c,
0021,
0006,
000c,
0005,
001b,
0008,
0014,
fffa,
ffbc,
0045,
0009,
002a,
ffc0,
fffd,
ffe4,
000b,
ffcc,
ffac,
fff2,
0042,
0026,
0021,
0045,
ffc0,
fff6,
0040,
001b,
fff7,
fff9,
007e,
0023,
003d,
ffce,
fff0,
ffdd,
ffc4,
0078,
ffc1,
004a,
ffb2,
ffe7,
fff5,
0059,
ffea,
0027,
0016,
002b,
ffaa,
0065,
ffc6,
0041,
002a,
001d,
ffcc,
001e,
0030,
0037,
ffc6,
0002,
0015,
0003,
002c,
0014,
0005,
0016,
ffe2,
0001,
0019,
0008,
0023,
0028,
fffe,
0018,
fff8,
ffcf,
ffe7,
0006,
ffc6,
0026,
0004,
ffe0,
0031,
fff2,
ffc2,
001d,
ffe5,
000d,
0019,
0054,
ffe9,
001a,
0014,
ffe7,
0004,
ffdf,
0017,
0005,
000e,
ffe7,
ffdf,
ffce,
0032,
001b,
ffeb,
000d,
fff8,
fff8,
fff1,
0005,
0023,
0027,
ffd4,
0018,
002b,
fffd,
001c,
ffef,
ffed,
ffd2,
0006,
0019,
0018,
000f,
0008,
fff7,
ffd8,
ffee,
002d,
fff5,
0017,
000d,
ffd5,
0026,
ffd7,
ffe0,
ffd4,
fffb,
0004,
ffc6,
ffed,
000b,
001c,
003a,
0010,
001c,
ffc3,
ffea,
fff5,
fff4,
fff9,
0027,
0032,
ffd9,
0010,
ffd2,
ffe2,
fff5,
0007,
fff1,
0006,
000c,
000d,
0034,
0021,
fff1,
0029,
0035,
ffef,
001a,
001b,
0004,
0020,
ffe4,
ffeb,
0020,
ffec,
001a,
ffec,
000e,
0038,
0036,
0003,
fff8,
fff2,
ffdc,
ffd3,
fff3,
004d,
0017,
0018,
ffe9,
ffdb,
ffef,
fff3,
ffe4,
ffc1,
001d,
0040,
ffb1,
ffbd,
ffc2,
ffff,
ffdc,
0053,
001a,
ffe8,
ffda,
0019,
ffbb,
ffc9,
ffef,
fffe,
fff7,
0065,
000f,
005b,
ff90,
0015,
ffa2,
0000,
fffd,
ffec,
0011,
0018,
0004,
ffe2,
0002,
ffda,
ffc1,
0021,
0017,
ffe7,
fff2,
0035,
fff2,
001d,
ffc9,
ffe5,
ffdc,
fff5,
0002,
0030,
0011,
001b,
ffd6,
ffda,
fff0,
0015,
ffd5,
ffd1,
0012,
000d,
ffd6,
0002,
fff8,
fffe,
ffe7,
0021,
ffe8,
ffca,
0015,
000a,
000c,
0029,
ffe8,
ffcf,
fff1,
0000,
ffd9,
001b,
ffe9,
ffd1,
ffed,
0036,
0000,
0000,
001d,
001a,
ffd6,
0003,
ffdd,
001b,
0000,
002d,
0019,
ffe7,
ffcb,
ffdf,
ffdb,
fff0,
ffd1,
ffc3,
ffe0,
0035,
ffd3,
000d,
fff8,
000b,
001b,
0010,
001b,
001d,
ffd1,
ffe8,
0003,
0007,
0007,
ffe2,
fff3,
ffcd,
0016,
000a,
0025,
fff3,
0026,
0019,
0001,
ffec,
ffda,
ffd4,
fff1,
fff5,
ffe1,
ffee,
fff0,
fffa,
000d,
ffde,
ffe8,
000f,
0013,
fff0,
0003,
000d,
001e,
ffea,
ffe1,
ffeb,
002a,
ffcc,
fff8,
0012,
ffec,
0008,
ffec,
0015,
fff5,
fff9,
0012,
ffd2,
ffc8,
ffe9,
003f,
fff7,
001c,
fff4,
ffef,
fffb,
0030,
0009,
ffec,
fff6,
ffd6,
001a,
0002,
0022,
fffa,
ffdb,
0019,
0016,
ffe1,
001e,
0028,
0003,
002d,
fffa,
000e,
ffde,
fffd,
ffdc,
ffee,
ffe9,
0018,
fffc,
ffd2,
0008,
fff3,
ffe1,
ffe9,
0005,
ffd8,
0005,
ffd9,
000d,
0011,
ffe0,
0014,
ffca,
002c,
0009,
fff0,
002d,
000a,
0009,
ffef,
fff9,
fffe,
001a,
ffee,
ffe8,
0016,
ffef,
0013,
ffe8,
fff0,
ffd1,
0026,
ffdb,
ffdc,
ffcd,
fff9,
0004,
ffe7,
0037,
ffda,
0008,
0015,
000a,
000d,
ffc4,
ffc7,
001a,
fff3,
0032,
002f,
0020,
0011,
0025,
ffce,
ffd0,
ffff,
000d,
ffdb,
0029,
fffe,
ffd9,
000b,
fff0,
ffee,
ffd1,
ffdf,
ffdb,
0002,
002a,
fff9,
ffdd,
ffe8,
ffee,
0026,
ffe1,
ffe0,
fff7,
ffed,
0005,
0013,
001f,
ffe7,
ffd9,
fff4,
0001,
ffd6,
000d,
0024,
0008,
0002,
fff0,
001d,
fff5,
0029,
ffe5,
0023,
002b,
0007,
ffe5,
fffe,
0022,
0030,
ffbd,
0005,
0025,
ffcf,
000c,
0017,
ffef,
ffde,
fff1,
0020,
000f,
ffca,
ffd1,
fff5,
ffee,
0015,
0023,
0013,
0025,
fff0,
ffaa,
0009,
0023,
fff7,
0010,
0023,
0044,
ffda,
0012,
fff3,
ffdc,
0002,
ffbc,
ffe5,
0032,
0002,
0016,
0022,
ffeb,
ffc2,
ffeb,
0002,
0020,
fff6,
ffc6,
ffd8,
fffe,
ffc9,
000b,
003e,
0014,
0009,
ffea,
001d,
0021,
fff8,
0012,
0021,
ffd3,
001a,
000a,
0022,
ffc0,
ffd2,
ffda,
0003,
0006,
ffe7,
0016,
ffcf,
fff1,
ffd9,
ffe1,
0009,
fff8,
0015,
fff2,
fff1,
ffdc,
ffe9,
fffd,
fff9,
ffc2,
ffde,
fff1,
0027,
001f,
000d,
000b,
0009,
ffe2,
ffd9,
fffd,
fff7,
0026,
ffe4,
0023,
0014,
ffed,
0001,
000a,
0023,
0004,
ffda,
ffe9,
000c,
ffef,
ffe5,
ffeb,
0031,
0010,
0006,
0021,
0002,
0025,
0021,
000e,
0010,
001c,
ffe6,
0018,
fffb,
fffb,
ffe7,
ffef,
0011,
003b,
fffd,
fffa,
0013,
ffc6,
0001,
ffe1,
0010,
003c,
000f,
fff3,
ffe6,
0005,
ffd9,
ffd1,
0021,
fff6,
ffe7,
0006,
0022,
0005,
ffdc,
ffec,
fff4,
ffe9,
ffe8,
fff8,
ffea,
001b,
fff4,
fffa,
0006,
000d,
fff7,
0031,
ffe7,
0020,
0024,
001e,
000e,
0009,
001f,
ffdf,
fff8,
ffda,
001d,
0009,
ffd7,
0022,
fffa,
ffe9,
ffe4,
ffef,
0038,
ffd5,
0011,
ffe5,
ffde,
fff3,
001c,
0000,
0024,
fff6,
ffda,
ffe7,
001b,
ffd5,
ffde,
001a,
0007,
0028,
fffb,
ffde,
0003,
0011,
001e,
fffd,
000c,
fff1,
ffe1,
0021,
0001,
000a,
000c,
fff7,
0004,
ffed,
ffe6,
0028,
fff0,
fffc,
ffdc,
000c,
0008,
ffe4,
fffc,
fff2,
ffe2,
0010,
0018,
ffdc,
0006,
0018,
ffe9,
000b,
0014,
0004,
ffdb,
002e,
001c,
ffe3,
ffe2,
ffec,
000d,
ffc4,
001a,
0010,
fff4,
0013,
0025,
0005,
ffd2,
ffff,
0021,
001f,
001d,
fffe,
fffa,
0021,
001f,
fffb,
ffff,
ffda,
ffd5,
ffdf,
ffe8,
ffcb,
ffeb,
ffe4,
000f,
0027,
0012,
001e,
ffe6,
0016,
ffd6,
0016,
000c,
0016,
fff6,
0003,
ffe6,
0002,
ffe7,
fff3,
fff2,
0041,
ffd0,
ffeb,
fffe,
ffef,
0017,
fff0,
000a,
0031,
002a,
0012,
ffef,
fff3,
0012,
fff6,
ffe1,
ffd0,
0019,
0010,
001a,
ffe8,
fff8,
ffcf,
001f,
ffe4,
0038,
0019,
ffeb,
003b,
ffba,
0000,
000c,
0002,
ffd6,
0025,
0003,
ffc7,
ffdc,
0014,
ffd3,
ffe8,
ffcd,
000a,
fff7,
001c,
fff3,
fffc,
ffa8,
0018,
0019,
ffd5,
0016,
0034,
ffe0,
ffec,
000b,
ffda,
0005,
ffd4,
0012,
001c,
ffbc,
ffd5,
001b,
0032,
ffc5,
0012,
fff2,
ffe7,
000d,
ffe9,
0002,
fff1,
ffff,
0023,
ffea,
0008,
001c,
fff8,
ffe4,
0026,
000a,
000f,
ffd1,
ffe3,
001b,
ffea,
0025,
ffef,
ffef,
fffd,
fff4,
0037,
fff2,
001a,
0018,
0029,
0009,
0050,
001d,
000b,
fff4,
002b,
0027,
fffa,
0024,
fff9,
0010,
0022,
0031,
ffeb,
0015,
0017,
ffdb,
fff8,
ffdb,
0007,
0052,
0011,
ffd5,
ffc8,
ffe7,
ffe9,
0025,
ffe6,
0045,
fff8,
0006,
001c,
ffca,
fffb,
fffc,
ffd0,
ffe7,
0029,
ffed,
000c,
ffda,
0037,
ffe6,
0029,
fffe,
0019,
ffc4,
0017,
0004,
0003,
ffd4,
ffb2,
ffe4,
ffe8,
0033,
0048,
0044,
0020,
fff1,
002d,
ffeb,
000f,
0018,
0051,
000b,
002d,
fff3,
0020,
ffab,
ffb7,
005f,
ffb2,
001a,
ffbb,
ffe1,
0000,
0020,
ffca,
002f,
0014,
ffee,
ffe1,
0074,
0019,
0009,
0036,
0042,
ffac,
ffec,
ffe5,
0069,
fffa,
ffe4,
fffa,
0007,
000f,
ffeb,
0031,
ffe3,
0044,
0022,
0019,
ffc7,
ffee,
ffe6,
001a,
0003,
002e,
0053,
0021,
0018,
0031,
fff7,
000e,
0027,
0017,
fff0,
0021,
ffce,
001b,
0035,
002f,
ffcf,
0010,
ffe0,
0037,
0021,
001f,
0001,
fff8,
ffef,
ffe9,
fff4,
ffeb,
ffe0,
0002,
ffcf,
000b,
0011,
001a,
0025,
0023,
ffe4,
ffc6,
001c,
fff5,
0024,
fff6,
0016,
000e,
0029,
ffea,
ffdc,
0001,
ffea,
000b,
ffe9,
001f,
0002,
003d,
0033,
ffe0,
0007,
0017,
fff4,
0038,
0019,
0017,
ffff,
0019,
ffef,
0004,
ffde,
ffdc,
ffd9,
fff4,
0000,
001b,
0006,
ffe1,
ffe4,
ffc3,
0008,
000c,
fff0,
ffe3,
0007,
0035,
ffcf,
001a,
0012,
0024,
fff5,
ffd0,
fff6,
0027,
ffed,
001d,
0017,
ffc9,
ffac,
ffef,
0010,
fffd,
ffff,
ffd7,
0015,
0036,
ffd6,
0023,
0023,
fff9,
0002,
ffcb,
ffcc,
0037,
ffd8,
fffb,
ffea,
000c,
ffd8,
ffb2,
0002,
ffed,
fff2,
ffca,
001d,
003c,
fffb,
0044,
ffe8,
ffe1,
0013,
000a,
fffe,
0031,
fff7,
ffed,
000c,
0017,
ffcf,
ffca,
003f,
fff5,
ffd1,
ffe2,
0020,
fff3,
0019,
ffeb,
0014,
ffff,
0039,
0012,
fff1,
ffed,
0015,
fff5,
fff3,
fff3,
ffe1,
003f,
ffdf,
0031,
ffd1,
ffbe,
ffc1,
ffb9,
fff1,
ffc0,
004f,
0025,
ffff,
000d,
0000,
fffe,
0011,
ffe9,
0012,
0026,
ffee,
ffd8,
0011,
fff7,
000b,
ffde,
0033,
ffe1,
0004,
0007,
fffb,
004e,
001a,
001b,
ffd1,
ffff,
fffa,
ffea,
ffd8,
ffff,
000d,
0001,
ffd2,
000c,
ffe6,
ffec,
001f,
0015,
ffe6,
001c,
ffbd,
0018,
fffa,
000d,
ffe4,
ffff,
0003,
001b,
fff0,
ffe3,
0000,
000c,
0011,
ffd8,
ffd9,
ffe4,
0024,
0021,
ffbf,
0017,
ffda,
ffd0,
0057,
001c,
0016,
ffee,
ffe0,
ffcf,
001a,
000a,
000d,
ffe7,
fff5,
ffde,
0010,
0033,
0026,
ffda,
ffe4,
ffe0,
ffde,
fff9,
0036,
0007,
ffd7,
001e,
ffef,
ffdc,
ffe9,
0039,
0026,
001d,
003b,
ffc9,
0009,
fff1,
0015,
ffbc,
0042,
ffe4,
fff5,
fffd,
fff8,
ffe1,
0019,
ffff,
ffe1,
000e,
0017,
0003,
000d,
0012,
001a,
ffcd,
ffcd,
0006,
0045,
ffe3,
ffe7,
fffe,
ffea,
000d,
001e,
001c,
ffeb,
ffd8,
0002,
ffd5,
001c,
001b,
ffbf,
0015,
ffe7,
002b,
0029,
ffdf,
0010,
003c,
ffce,
0009,
fff6,
ffe3,
fff1,
000b,
000f,
0024,
0009,
ffcd,
ffdc,
0027,
0007,
ffed,
fff4,
005a,
003a,
0039,
ffe7,
ffcd,
ffd6,
ffa7,
0031,
ff9d,
0017,
ffe4,
ffe2,
0012,
0035,
ffae,
0016,
ffe5,
001a,
ffcd,
0076,
0004,
0051,
000c,
0016,
ffb9,
0022,
0010,
0033,
0006,
002b,
fffd,
001c,
000e,
ffef,
fff5,
fffd,
ffa0,
0006,
0002,
0008,
002c,
001b,
fff5,
ffcc,
ffc9,
ffb8,
ffdb,
0011,
0006,
0012,
0029,
000a,
fff8,
002c,
ffbb,
001e,
ffca,
ffed,
002d,
0016,
0014,
0016,
fffb,
000f,
ffd4,
ffb5,
0007,
ffff,
ffeb,
ffdd,
ffd6,
ffdc,
0019,
ffdf,
ffe6,
002a,
ffc7,
fff1,
0001,
0027,
fff2,
ffc5,
ffdf,
fff6,
0049,
ffc7,
fff0,
fff6,
0011,
ffcc,
0024,
0035,
ffe7,
0008,
0033,
ffd6,
ffff,
fff9,
0022,
ffdd,
ffdb,
002b,
fff1,
ffdb,
ffc8,
001b,
fff0,
ffda,
fff0,
ffd6,
003e,
fffb,
0008,
ffde,
ffeb,
ffdb,
0005,
0012,
0036,
fffc,
0019,
ffed,
ffe3,
0001,
fffe,
ffdb,
fffa,
fff3,
ffdb,
0011,
0004,
ffff,
0025,
0020,
0003,
0010,
002a,
002a,
0032,
0025,
0002,
fff1,
0009,
0007,
ffed,
003b,
0003,
000c,
0031,
fff8,
0059,
000b,
ffdb,
001c,
0018,
ffe4,
ffdd,
0034,
006c,
000d,
002d,
003c,
0022,
ffba,
ffa3,
ffe1,
fff9,
fffd,
003c,
ffc9,
0006,
0025,
ffde,
0003,
0038,
ffc8,
0008,
fff2,
0012,
ffd6,
0012,
fffe,
0008,
ffeb,
0021,
0014,
ffcd,
ffd3,
ffda,
ffc4,
ffcb,
000e,
0012,
0034,
fff6,
0006,
000b,
ffe0,
ffca,
0013,
0020,
0022,
0013,
0003,
000c,
ffc5,
0016,
fff3,
0033,
ffe2,
fff9,
001a,
fff1,
fff1,
000a,
000b,
ffd2,
ffe9,
ffe9,
0010,
fff6,
fff3,
0003,
ffd5,
ffed,
ffe6,
ffe1,
ffde,
0038,
ffca,
000c,
000f,
fffa,
0005,
0020,
ffdc,
000d,
0016,
0005,
000b,
0006,
ffe7,
fff5,
ffee,
ffe7,
ffc8,
0013,
ffe0,
ffe0,
fffc,
0022,
fff9,
0009,
ffea,
ffef,
0018,
0019,
0037,
fffc,
0006,
0019,
ffc8,
ffe2,
ffe7,
0007,
ffea,
fffc,
0040,
fff5,
001f,
ffea,
fff7,
fff3,
ffed,
0030,
0020,
0030,
0019,
0016,
ffff,
ffed,
001e,
001e,
000c,
ffc5,
003c,
0012,
fffd,
0020,
fff7,
fff0,
000c,
001b,
000a,
fffb,
ffd3,
0018,
003b,
001e,
fff0,
ffff,
0009,
fff8,
0008,
0015,
0042,
ffee,
ffe6,
ffd2,
001a,
0015,
0006,
002d,
ffcb,
0020,
ffd1,
0004,
0035,
001d,
001e,
0006,
fffc,
ffd0,
002a,
ffe0,
fff9,
ffe2,
0034,
ffcd,
0035,
0000,
ffd8,
0016,
002c,
fff5,
0005,
0011,
000b,
ffe3,
0005,
0015,
000e,
ffff,
fff7,
ffdf,
000a,
ffe5,
ffe6,
ffc6,
ffc5,
0029,
0001,
0014,
0006,
0006,
ffcb,
0024,
fff6,
003e,
000c,
0051,
0026,
0031,
ffcd,
001e,
ffce,
ffcd,
0017,
ffde,
0031,
ffaa,
0030,
0049,
001a,
ffff,
0039,
001f,
fff9,
ffda,
0051,
ffe2,
ffe3,
ffbd,
0025,
ffc2,
ffe3,
fff8,
0028,
001b,
0029,
000d,
0004,
ffc8,
0030,
ffe3,
003b,
0036,
fff1,
ffd5,
0000,
0026,
ffec,
ffc6,
ffd6,
000c,
0005,
001f,
ffb7,
ffe2,
0016,
0011,
002a,
002b,
003a,
002d,
0024,
0022,
0006,
ffb7,
ffe3,
fffe,
0021,
ffb2,
fff3,
0000,
fff3,
005c,
fff6,
fffd,
0010,
ffee,
003d,
0005,
0041,
0037,
0058,
ffdd,
ffd7,
ffd9,
0006,
0013,
fff6,
fff3,
001f,
ffe9,
fff8,
fff0,
ffc0,
ffcc,
000b,
ffeb,
ffde,
fff1,
0024,
ffeb,
000a,
000c,
ffc7,
0017,
0003,
0011,
fff1,
ffed,
fff7,
0001,
fff5,
ffb2,
002c,
0027,
0021,
0017,
0019,
001c,
0036,
002e,
001a,
ffc2,
ffbe,
ffd7,
ffd5,
ffd1,
002b,
ffde,
ffd6,
000d,
ffea,
0011,
ffe5,
ffe2,
000a,
fffb,
ffdb,
0033,
0024,
ffda,
ffda,
ffe3,
ffe7,
ffeb,
fff3,
001d,
0017,
0027,
fffb,
001a,
0016,
ffe0,
0015,
000d,
ffe9,
002a,
ffe4,
0014,
fff8,
fffa,
0035,
000e,
0011,
0010,
ffd9,
ffdc,
000d,
ffe9,
002b,
ffef,
000f,
0002,
ffd5,
0033,
000d,
002f,
0005,
0004,
ffd8,
fff7,
ffe1,
ffe5,
0013,
0031,
ffeb,
002c,
ffe9,
0027,
fff2,
002d,
002a,
000e,
0019,
0004,
fff4,
ffcc,
ffdf,
001a,
ffd8,
001b,
0009,
fff5,
ffdc,
0028,
fff2,
0004,
ffee,
fff0,
fff4,
0019,
0020,
001f,
fff0,
fffe,
0006,
0029,
0005,
0018,
002e,
ffff,
0033,
0010,
0039,
0013,
0019,
ffff,
ffcb,
fff7,
fff4,
001a,
ffda,
001b,
fff9,
ffeb,
fff2,
ffff,
0007,
fff5,
0013,
003d,
0041,
0011,
001d,
0005,
000e,
0008,
ffdc,
000a,
0027,
000e,
0027,
ffe7,
ffef,
0012,
ffc9,
fff7,
fffa,
0037,
fff5,
0024,
ffd5,
ffcb,
ffec,
ffbc,
0015,
ffec,
0038,
000e,
ffd4,
ffdf,
0016,
ffd3,
0029,
0000,
ffcd,
ffbc,
fff1,
003c,
0020,
ffdd,
fff0,
002a,
000d,
ffd6,
ffe2,
0026,
003d,
004b,
0029,
0023,
0028,
ffd5,
0016,
0038,
0000,
ffe5,
ffe9,
ffd0,
ffdb,
ffdf,
0006,
ffca,
004f,
002c,
ffdb,
0029,
001b,
003b,
fffb,
0004,
0010,
fffc,
fff4,
ffcd,
ffe8,
0008,
ffb7,
0019,
ffe1,
ffa3,
ffbc,
fff0,
fff0,
0030,
ffcd,
ffb5,
ffdf,
0009,
ffcf,
0008,
0008,
0027,
ffc8,
fff7,
000f,
fffa,
ffe4,
ffcb,
ffef,
ffe6,
ffdc,
ffec,
ffe2,
fff9,
fff8,
001e,
ffe9,
0048,
ffb5,
0028,
ffd5,
ffe5,
0011,
ffec,
fff9,
ffea,
0012,
002f,
ffdc,
0040,
004a,
ffe2,
ffd6,
ffe0,
0037,
ffc3,
0037,
004b,
fff0,
002f,
002f,
0044,
0023,
001f,
ffec,
0012,
001e,
0013,
fff9,
ffc2,
ffc4,
0007,
fffd,
ffcb,
ffe7,
ffe4,
0020,
0044,
003d,
0006,
0025,
0014,
0050,
003b,
003b,
fff5,
ffe2,
ffe6,
ffc3,
0038,
001d,
ffc1,
0015,
000e,
000d,
ffe2,
ffb9,
ffec,
0017,
001a,
ffd3,
ffff,
ffce,
0005,
ffc9,
0041,
0036,
0018,
ffe9,
ffdd,
ffda,
0011,
0040,
0009,
fff6,
0001,
fff3,
ffe6,
0020,
ffff,
0015,
fff3,
ffe5,
001f,
0017,
ffce,
ffd9,
0026,
0032,
0030,
ffdb,
0011,
ffe0,
ffec,
0031,
ffca,
001c,
002b,
fff9,
003b,
0004,
ffef,
0009,
0027,
0011,
0027,
ffdf,
ffe9,
001d,
0021,
ffd8,
0029,
0004,
ffbc,
0030,
ffe3,
0000,
ffcf,
0014,
ffc9,
ffec,
ffd4,
0017,
ffed,
000b,
ffe4,
0007,
002c,
ffc1,
001a,
0010,
fffd,
0014,
000f,
ffe5,
ffda,
000d,
0023,
ffc6,
ffdb,
0043,
0014,
002a,
002e,
ffe6,
ffd2,
fffa,
ffe6,
003c,
fffb,
0020,
0002,
ffdb,
0008,
ffe5,
002e,
0005,
0045,
0022,
003c,
0034,
ffca,
0023,
0014,
0016,
0026,
0033,
fff7,
0040,
003b,
002e,
ffed,
ffc9,
fff8,
fff4,
ffee,
fffe,
0013,
ffd7,
ffe7,
0002,
ffcf,
ffc2,
ffe4,
0023,
001f,
fffb,
0015,
ffd7,
ffda,
0052,
0008,
0024,
ffe3,
fff6,
ffd8,
fff0,
ffb7,
ffe7,
ffda,
0014,
0019,
ffc9,
fffb,
ffba,
000a,
ffec,
fff9,
003b,
ffd1,
ffeb,
ffda,
ffda,
fff8,
ffd6,
ffbd,
ffc6,
ffc0,
ffe7,
ffdb,
001d,
0032,
0007,
0017,
0023,
0027,
ffef,
001e,
0033,
000e,
000d,
0015,
0016,
0000,
0013,
fffb,
000a,
ffee,
ff95,
0031,
ffa5,
ffd1,
0015,
0023,
0014,
0040,
0050,
003c,
ffb3,
0020,
0042,
0028,
fffe,
ffec,
0012,
ffb6,
0021,
0020,
fff3,
fff1,
001f,
ffff,
0003,
fff0,
ffeb,
fff3,
ffe0,
ffce,
ffd4,
000b,
ffd0,
ffdf,
fffc,
ffdc,
0018,
0004,
001e,
ffef,
ffcb,
ffd7,
ffec,
ffd6,
ffed,
000b,
fff1,
0024,
ffec,
fff8,
ffbd,
ffbc,
0000,
0000,
ffd4,
fff2,
0031,
003c,
ffd3,
003a,
003d,
0020,
ffc6,
fff7,
fff7,
ffb1,
fff2,
003f,
fff7,
000f,
ffdd,
0017,
0030,
0051,
002c,
000d,
fff6,
ffc0,
0021,
ffe2,
ffc1,
ffdf,
002b,
0024,
003a,
0002,
001c,
0037,
0000,
001a,
ffc7,
ffe9,
002d,
0020,
0026,
ffc4,
0026,
ffd4,
0014,
0010,
0019,
0010,
ffd8,
001c,
ffe4,
ffd6,
0044,
ffca,
fff1,
ffb6,
ffbe,
ffdd,
ffb3,
ffe4,
ffe5,
0009,
ffd7,
ffee,
0016,
fff9,
0041,
ffdc,
0005,
ffde,
fffc,
000c,
ffd8,
0009,
fff5,
000f,
ffc4,
ffd0,
0012,
ffd0,
0002,
001b,
fff3,
0005,
003a,
000f,
ffe1,
0009,
0023,
0035,
ffff,
ffe8,
000b,
fffe,
ffd6,
0006,
0001,
ffd1,
ffdd,
0002,
ffc7,
0024,
0009,
0021,
ffe7,
ffe3,
001f,
ffd9,
0014,
0002,
0004,
ffcd,
ffdd,
0000,
ffdc,
fffb,
0018,
0004,
ffc2,
0004,
001d,
0009,
002f,
fff2,
0010,
ffea,
0007,
ffe3,
ffda,
0002,
002d,
0004,
0028,
0005,
0012,
002c,
fff8,
002f,
ffe6,
ffff,
fff3,
0024,
ffff,
ffe6,
fff2,
001c,
0008,
0037,
fff8,
ffcb,
001d,
002a,
ffed,
001d,
ffd5,
ffdf,
ffe8,
0022,
fffc,
fffa,
ffd3,
0012,
ffd8,
004e,
002b,
0035,
ffd0,
ffd3,
ffe7,
0028,
0047,
0006,
0002,
ffeb,
ffe6,
ffdc,
ffd5,
0016,
fffc,
002a,
0000,
0005,
001d,
0010,
ffde,
ffc9,
005c,
ffc9,
001b,
0061,
0019,
ffc8,
ffe5,
fff5,
ffdf,
0019,
004d,
ffeb,
ffe3,
0029,
0012,
ffc7,
ffd2,
002e,
ffe2,
ffea,
000e,
0000,
fff7,
fff9,
0032,
ffe5,
0040,
0026,
0039,
fffb,
ffef,
001c,
000b,
fff4,
ffd1,
ffd9,
0003,
fffd,
fff2,
000c,
ffd9,
ffcb,
0034,
ffdd,
000e,
002c,
fffc,
0015,
0021,
0033,
fffe,
ffbb,
ffeb,
001d,
002d,
ffdd,
0016,
0035,
fffd,
0048,
ffc1,
0013,
fffd,
000f,
002c,
fff2,
003e,
0020,
0014,
0014,
000f,
0040,
001e,
fffd,
002e,
0017,
0034,
ffce,
000d,
fff5,
fff5,
ffca,
fff6,
ffc1,
ffec,
ffc8,
0031,
ffd7,
fffd,
ffc4,
0039,
ffd7,
0032,
0021,
001c,
0000,
000a,
0010,
ffe0,
ffac,
ffec,
ffe5,
ffdc,
ffbb,
ffde,
0010,
ffc0,
0003,
0034,
ffd9,
ffd1,
001f,
fffc,
ffc4,
ffea,
0019,
0024,
0021,
ffd1,
0010,
ffce,
fff0,
ffae,
ffa8,
0006,
fffd,
000b,
ffe2,
ff80,
001e,
0019,
005b,
004a,
0044,
002f,
0069,
0059,
0046,
fffc,
fffe,
003a,
ffe8,
fff9,
ffd8,
ffbf,
ffc6,
ffb1,
0026,
0059,
ffeb,
0021,
0049,
0030,
ffb5,
ffbe,
ff81,
004e,
fff8,
ffe9,
0035,
ffa4,
ffd9,
ffa8,
001a,
ffdb,
0035,
ffbc,
000a,
ffea,
ffe0,
ffce,
0000,
0013,
002b,
0049,
fffd,
ffb5,
003a,
0043,
0045,
0027,
0016,
001e,
ffff,
006d,
0063,
0011,
ffbf,
ffff,
0010,
0020,
0009,
ffa2,
ffbe,
ffde,
0023,
fffc,
002d,
0008,
003d,
fffc,
0013,
ffe7,
ff93,
0038,
0007,
003c,
0038,
ffb8,
003c,
ffce,
ffe3,
fff5,
000a,
004b,
000e,
ffef,
0001,
ffd8,
fff8,
001d,
ffd3,
ffdb,
ffcc,
002e,
000e,
ffd0,
ffad,
ffed,
ffbc,
0028,
ffee,
000a,
0007,
ffee,
0027,
002c,
0048,
0007,
001a,
0013,
0013,
ffd4,
ffbe,
ffd3,
ffda,
ffd2,
0023,
0017,
ffd3,
0015,
0037,
fffa,
fffb,
fffe,
0014,
0015,
ffe0,
ffda,
0037,
0046,
003c,
fff2,
fffe,
ffeb,
002b,
ffc3,
ffcf,
000c,
fff4,
003d,
ffe1,
ffc0,
0007,
fffe,
003a,
0038,
fff2,
0027,
003d,
0026,
0030,
ffb7,
ffd2,
0017,
ffca,
ffd0,
0018,
ffbb,
ffce,
fff1,
0018,
0043,
0017,
0019,
0047,
0013,
0011,
0003,
fff9,
0050,
ffd4,
0028,
002b,
ffe2,
ffe8,
ffb9,
002d,
ffbd,
fff0,
ffd8,
fffb,
ffdd,
0024,
ffde,
0001,
0009,
0043,
0025,
fff7,
0022,
002f,
002b,
0019,
0002,
001a,
ffe5,
0029,
002d,
004c,
ffdd,
fffe,
ffea,
fff4,
001a,
fffa,
ffdc,
ffce,
0039,
0043,
ffed,
0000,
fff1,
fffc,
ffcb,
fff6,
ffe0,
ffda,
000e,
0013,
0026,
fff6,
0022,
0047,
ffd9,
ffdb,
ffca,
ffe6,
000e,
fff5,
000f,
ffff,
000d,
ffd8,
ffed,
0009,
fffe,
fffb,
fffe,
ffdf,
fff7,
ffea,
0022,
fff0,
ffdf,
fff2,
ffeb,
0020,
0010,
0010,
fff1,
000e,
0007,
0000,
fff5,
fff5,
fff6,
ffdc,
000e,
fff2,
ffe0,
0020,
0000,
ffd2,
0002,
0009,
ffe7,
0015,
0014,
ffed,
ffc3,
ffe3,
001a,
ffe3,
000c,
ffbe,
ffe5,
ffdc,
ffef,
0019,
0027,
ffe9,
0005,
002c,
000a,
0018,
ffe5,
ffea,
001e,
fff1,
fff5,
0037,
ffe6,
ffe3,
0011,
001f,
ffdc,
fffe,
001c,
0005,
000f,
000b,
fff9,
0008,
0013,
fff6,
fff7,
0009,
001a,
fffa,
ffed,
0006,
002c,
0009,
fff0,
000c,
000e,
0001,
0024,
000c,
001c,
fffd,
fffe,
0020,
ffeb,
ffe0,
fffc,
ffcd,
ffc1,
fffb,
fff5,
0013,
0037,
0013,
fffa,
000c,
ffc9,
001a,
fff3,
0014,
0042,
000b,
ff9d,
ffc7,
0025,
ffbe,
ffd3,
001d,
fffc,
ffdf,
fff7,
fff9,
ffee,
ffde,
ffca,
0034,
0014,
0038,
ffde,
000d,
fff3,
ffe5,
0003,
0041,
002c,
000a,
ffa9,
ffaf,
0010,
ffcb,
ffce,
0002,
ffe3,
ffea,
0020,
0002,
002a,
fff6,
ffca,
fff7,
000e,
ffe5,
0020,
ffd3,
ffdc,
ffef,
000d,
ffeb,
0009,
ffe4,
ffe0,
0010,
fffd,
0017,
0032,
001d,
ffcf,
000f,
fff0,
000b,
fff1,
fffd,
fffb,
001c,
0039,
0009,
ffe7,
ffbf,
ffc8,
002a,
0016,
ffed,
ffea,
fff7,
0013,
0021,
fffd,
ffd7,
001e,
0021,
fff1,
fff3,
001c,
ffe3,
ffda,
0047,
fffa,
0000,
0036,
0010,
000c,
000d,
ffc4,
0007,
fff5,
ffe9,
0006,
fff5,
ff94,
ffb6,
0002,
ffd6,
0000,
ffd2,
000b,
ffea,
001a,
0000,
002b,
ffdf,
ffb9,
0005,
0014,
0014,
ffe8,
ffed,
fffe,
ffe9,
fff1,
0015,
fffe,
fff7,
ffda,
ffed,
0002,
ffd9,
fff9,
0022,
ffe4,
fff0,
001b,
fff3,
0014,
fffd,
fff6,
001c,
ffed,
fff6,
ffef,
ffe5,
fff9,
fffe,
ffdd,
0003,
0022,
fffa,
ffcf,
fff0,
0018,
fff7,
0002,
ffd7,
ffe4,
001e,
0003,
ffff,
0009,
ffe9,
fff4,
fff1,
0006,
0000,
fff2,
fff0,
001b,
0013,
0004,
0013,
ffdb,
fffe,
002a,
fff1,
0011,
0006,
001d,
0003,
ffe8,
000c,
000e,
ffea,
ffdd,
ffec,
0005,
000d,
0000,
001a,
ffe7,
fffc,
ffdd,
0014,
ffff,
000b,
003f,
000b,
ffc7,
ffe7,
0012,
ffde,
ffc4,
001c,
ffe2,
ffe1,
0004,
ffd0,
ffe3,
0008,
0003,
ffec,
0019,
fffd,
0010,
000f,
ffe0,
002d,
001c,
ffca,
003e,
002a,
ffb4,
ffce,
0038,
ffc9,
ffcb,
001a,
fffb,
fffc,
ffff,
fff0,
fff7,
0001,
fffc,
0005,
0004,
fffc,
001a,
ffd4,
fff2,
0005,
0016,
0019,
000c,
ffd5,
ffe8,
0020,
fff2,
fff1,
0016,
0015,
0004,
0005,
0008,
fff4,
0038,
ffe5,
ffd6,
0030,
0017,
000b,
ffdc,
ffd5,
ffd7,
0012,
ffe8,
fff6,
fffb,
ffec,
ffae,
000b,
ffd2,
ffed,
000c,
0000,
000a,
001c,
0020,
0028,
0005,
ffe3,
0006,
000c,
0002,
fffa,
ffda,
fff3,
0026,
0002,
fff0,
ffef,
fff3,
000d,
001c,
0027,
fff2,
fff3,
001e,
ffff,
0020,
0016,
0003,
ffee,
0008,
001a,
fffb,
ffec,
0003,
ffe5,
003c,
0018,
ffe5,
0003,
002b,
ffdc,
ffee,
ffef,
0032,
002b,
fff3,
0029,
000d,
0001,
ffed,
0014,
000d,
ffe2,
ffdf,
0010,
000d,
fff9,
fff3,
fff5,
ffe4,
fff4,
0008,
0000,
ffe6,
0013,
fff1,
fff5,
ffd0,
fffc,
fffb,
ffe9,
0002,
ffe7,
0002,
0001,
001c,
ffe9,
fff4,
fffe,
ffeb,
fff2,
ffeb,
ffea,
0014,
ffec,
0015,
000d,
fff4,
0001,
ffde,
0014,
0026,
0013,
0004,
002b,
fff4,
ffe3,
000c,
fff2,
fffe,
0010,
ffec,
0011,
001b,
ffeb,
0003,
fff2,
0005,
ffea,
ffeb,
ffff,
000a,
0016,
fff7,
ffe3,
0022,
000b,
0003,
001b,
001b,
ffca,
0012,
fff0,
0005,
fff9,
0014,
0003,
002e,
fff2,
ffef,
fff6,
ffe5,
ffe6,
0032,
ffe7,
ffff,
fffe,
ffd2,
000a,
003f,
002f,
ffec,
0009,
0028,
0001,
0009,
0009,
fff9,
fff7,
fff2,
fff1,
fffb,
0004,
ffec,
0010,
ffe7,
000f,
0009,
ffef,
ffea,
001d,
0007,
0021,
ffe3,
ffe3,
fff8,
ffe5,
fffe,
fffa,
0004,
ffea,
fff8,
fffa,
fff8,
fff7,
0023,
ffe3,
000b,
ffea,
ffe4,
ffff,
000a,
000f,
0003,
fff8,
0014,
000e,
fff6,
fff5,
0017,
0001,
0013,
002a,
fff7,
fff5,
000f,
ffe4,
ffef,
0006,
0007,
0000,
fff2,
000c,
ffe1,
0000,
fffe,
fffe,
0015,
000a,
fff0,
000e,
ffcf,
fff7,
0012,
ffd3,
0009,
000f,
fff4,
ffe0,
ffff,
ffe0,
ffef,
001e,
fffe,
0001,
0018,
fff0,
0018,
001f,
ffe7,
fff5,
000a,
fff0,
000f,
0006,
fff4,
0002,
0020,
ffe9,
ffed,
001a,
0014,
fff8,
fff8,
0007,
fff1,
fffd,
0009,
000c,
000f,
fffc,
ffff,
fff0,
0010,
0021,
0012,
fffe,
001e,
0023,
ffed,
fff1,
001a,
0002,
ffe7,
0010,
001b,
ffff,
001a,
fffb,
0003,
0002,
ffed,
ffea,
fff0,
fffa,
0019,
0017,
fffd,
ffef,
fff5,
fffb,
fffe,
ffe5,
ffe9,
000e,
ffff,
fff7,
ffe5,
0000,
0017,
ffeb,
fffd,
ffee,
000a,
000e,
0009,
0003,
ffe7,
0012,
ffe7,
ffe2,
fff5,
000a,
fff8,
fff3,
ffff,
ffec,
0006,
0018,
001d,
ffeb,
000d,
000f,
000a,
fff9,
ffec,
0027,
fffc,
000a,
0023,
0013,
000b,
ffe5,
0019,
ffec,
0027,
ffef,
0007,
000c,
fff3,
000b,
0032,
000e,
0011,
0000,
001a,
0015,
ffed,
fffb,
fff6,
ffee,
ffdb,
ffea,
fffe,
fffe,
0010,
0015,
0015,
fff9,
fff1,
000f,
fffa,
fff0,
0009,
0024,
ffee,
ffff,
001a,
fffa,
ffe7,
0002,
0008,
fffc,
0010,
0007,
0009,
fffb,
0007,
ffe5,
fffa,
0000,
0010,
0006,
0003,
fff5,
ffef,
0003,
ffee,
000a,
0022,
0007,
fff3,
ffeb,
fff9,
000d,
fffc,
0005,
ffff,
001f,
fff0,
ffea,
ffea,
ffff,
fff8,
ffe6,
0016,
fff2,
0018,
0014,
fff0,
ffec,
000a,
fff2,
0007,
0012,
fffe,
fffa,
fff6,
0017,
0001,
ffec,
001a,
0001,
fff2,
000d,
0001,
fffe,
0006,
0019,
ffef,
0013,
ffea,
0013,
0002,
0005,
0021,
0020,
ffeb,
ffd1,
000b,
ffdd,
fff2,
000e,
fffb,
ffe7,
fff3,
001b,
fff8,
ffff,
0014,
0013,
fffa,
0006,
000d,
000a,
fffa,
fffc,
ffe0,
ffed,
fffa,
001b,
0003,
ffdf,
fffd,
ffe3,
fffa,
fff7,
0018,
fffa,
0009,
ffe8,
ffec,
0012,
0016,
fff6,
fff3,
0009,
0003,
001e,
fffe,
0013,
0013,
0005,
0004,
fff3,
0004,
ffdb,
001b,
fffe,
ffef,
0031,
001c,
ffef,
ffe7,
fff5,
ffd4,
0012,
fff8,
fff0,
000e,
002c,
ffd7,
0020,
fffd,
0026,
fffe,
000b,
0012,
0008,
ffc9,
ffda,
0012,
ffc6,
ffe4,
0034,
001e,
000a,
fffe,
fff5,
fff9,
fff8,
000b,
ffe8,
fff1,
0011,
ffd3,
0028,
fff9,
0018,
0001,
0019,
0023,
0023,
fff9,
ffd6,
0033,
fff2,
ffdf,
000a,
000e,
fffe,
fff2,
fff6,
0008,
0006,
0038,
fff1,
ffec,
0015,
ffff,
0000,
fff4,
fff0,
ffed,
000e,
fffb,
000b,
0025,
fff2,
0024,
0009,
ffef,
fffc,
ffef,
0008,
fffa,
fff5,
0002,
ffe7,
fffa,
fff4,
ffda,
0007,
fffa,
ffed,
ffed,
fff7,
fffd,
0010,
fff4,
001f,
0005,
ffe9,
ffe6,
fffb,
ffec,
0022,
ffe7,
000c,
0005,
0013,
ffee,
fff5,
001a,
fff1,
fff9,
ffff,
ffd4,
ffde,
fffd,
fff5,
fff6,
001c,
ffee,
001a,
fff1,
0010,
0017,
fff7,
0017,
0008,
ffdf,
fff9,
fff2,
fff4,
fff5,
ffdb,
0014,
0000,
0008,
0001,
ffe1,
ffed,
000d,
0009,
0007,
003c,
0015,
fffd,
fff0,
ffe9,
ffeb,
ffdd,
0005,
0001,
0009,
fffd,
000c,
ffef,
0006,
000f,
0006,
ffe9,
000a,
000e,
000b,
fff2,
fff8,
fff6,
ffe5,
000b,
ffd8,
0016,
0034,
0015,
0003,
0019,
0003,
0008,
fff6,
fff6,
0001,
0006,
ffdb,
ffee,
0002,
ffe8,
0003,
ffe4,
000e,
fff0,
0012,
0014,
000f,
0018,
fff4,
000e,
0005,
0002,
001b,
0015,
0005,
0002,
ffcc,
fffe,
001a,
ffd9,
fffc,
000d,
0001,
fff8,
fff7,
fff9,
ffed,
000e,
fff6,
001a,
fffa,
fffa,
ffe7,
ffef,
ffea,
fffc,
0009,
fffc,
0024,
ffff,
ffd2,
0005,
0008,
000b,
fffe,
0003,
fffb,
000b,
ffe3,
0002,
fff1,
ffdb,
fffb,
ffe3,
0003,
0017,
0012,
0001,
ffda,
000c,
001b,
ffff,
0003,
fffc,
ffe5,
0010,
ffe4,
0015,
0013,
fff2,
001c,
fff9,
fffb,
ffe6,
ffe0,
ffe8,
0022,
fff6,
fff8,
0011,
fffe,
ffeb,
0023,
003d,
ffd8,
0027,
0022,
ffec,
ffe6,
000e,
ffe9,
fff5,
fffc,
fff1,
fffa,
ffe3,
0000,
0009,
0005,
0010,
0002,
fffb,
fff6,
fff4,
ffec,
ffe5,
0026,
0027,
ffdf,
0023,
fffd,
0002,
ffe7,
0005,
0010,
001d,
0028,
ffe1,
0010,
fffe,
ffee,
0012,
0004,
0000,
0019,
ffe6,
001e,
0016,
fff0,
fffc,
000c,
0015,
0011,
0007,
fffb,
002a,
ffe7,
ffec,
ffe5,
ffd4,
ffe0,
ffdf,
fffa,
000f,
0018,
001f,
ffe7,
0015,
0007,
0014,
0012,
fff6,
0024,
001c,
ffd5,
ffcb,
0021,
ffe4,
0011,
ffe7,
fff3,
ffe9,
000d,
ffe7,
ffff,
fff4,
0005,
0009,
0010,
fffe,
ffee,
fffc,
001f,
0009,
0007,
0012,
0005,
0007,
fff9,
ffd9,
0012,
ffe1,
ffe9,
0019,
fff7,
001a,
0027,
fffc,
fffe,
fff7,
ffe9,
fffa,
0025,
0011,
0019,
000c,
ffd1,
000e,
0005,
fff9,
001a,
0006,
ffe7,
0015,
fffe,
ffce,
ffe0,
0033,
ffd9,
000f,
0014,
ffdd,
ffee,
0001,
001e,
0012,
0024,
0002,
fff3,
fff2,
ffd4,
002e,
000e,
fffc,
001a,
001e,
ffd1,
ffeb,
fff4,
ffe8,
0009,
ffee,
0005,
ffeb,
ffee,
fff9,
ffea,
0031,
0021,
fff1,
0009,
0007,
002d,
0027,
ffe4,
0003,
fff9,
ffe5,
fffd,
0019,
000c,
0015,
fff8,
0001,
0012,
fff2,
fff9,
ffeb,
ffef,
fff2,
000a,
ffde,
000e,
fff7,
0005,
0024,
fff2,
0008,
0012,
0005,
0007,
0004,
0014,
000f,
0010,
000b,
0008,
fff8,
000f,
ffea,
001c,
0015,
000f,
fffd,
fff0,
fffb,
0005,
ffea,
ffe7,
fffc,
0001,
0005,
0025,
ffe1,
fff8,
000b,
0010,
ffe3,
fffd,
0022,
0013,
ffef,
fff2,
0019,
000b,
fff7,
0013,
fff9,
000e,
000b,
0009,
ffe5,
000f,
ffe2,
0010,
0007,
ffee,
0016,
fffc,
fff4,
001a,
ffe7,
ffee,
fff0,
0008,
fff1,
fffb,
ffee,
0016,
0005,
ffec,
0016,
fff3,
0017,
0006,
ffee,
0000,
0015,
fffe,
000d,
fff0,
fffc,
ffec,
000f,
fff8,
ffef,
fff6,
0004,
ffff,
ffdd,
fff3,
003d,
ffe3,
0004,
001c,
ffff,
ffd6,
fffe,
ffeb,
000e,
0007,
0039,
fff1,
fff5,
ffda,
0010,
ffdd,
fffa,
003e,
fff9,
ffcd,
ffce,
001f,
ffdc,
ffdd,
0006,
ffe8,
0001,
001f,
fff4,
fff0,
ffde,
000b,
0005,
0003,
fff3,
fff2,
ffed,
fff1,
0005,
0011,
001d,
ffeb,
ffde,
ffda,
ffe2,
000d,
ffdf,
000f,
ffd6,
fff6,
fff8,
0014,
0010,
002a,
ffe0,
0010,
0025,
ffcd,
0010,
ffe6,
ffe6,
0005,
ffd8,
ffff,
0027,
ffe4,
000d,
0009,
0014,
0009,
fffc,
0018,
ffd3,
0003,
fff5,
0019,
0003,
ffe9,
001f,
001b,
ffd7,
ffdb,
ffd1,
fffd,
ffee,
ffe9,
ffed,
002c,
fffc,
ffe0,
ffe3,
0040,
0040,
000f,
000e,
fffd,
0026,
fff7,
0010,
001f,
ffdd,
ffec,
0018,
0005,
000a,
0018,
ffee,
fffe,
0001,
ffd6,
0027,
fffe,
ffda,
001e,
0018,
ffcc,
fffe,
fff1,
fff5,
0011,
fffa,
fffb,
fffd,
0018,
fff3,
001f,
0007,
ffea,
001d,
0010,
0004,
ffef,
ffe0,
ffb0,
0014,
ffff,
fff4,
0010,
ffc7,
ffce,
001a,
ffdf,
ffe5,
0027,
ffc3,
ffe9,
fff6,
fff4,
0007,
0052,
ffe1,
fff9,
0007,
001a,
ffdb,
ffe7,
ffb6,
fff3,
ffdd,
fff6,
0022,
ffc6,
ffca,
0035,
0050,
ffcb,
0018,
0013,
ffef,
fff3,
fff1,
ffdf,
0002,
0003,
ffde,
001f,
000a,
0008,
0005,
ffda,
fff7,
0016,
fffb,
fffc,
000c,
fff8,
fffc,
ffea,
0017,
fffd,
fffc,
000c,
ffc3,
fff3,
000a,
fffb,
0013,
0003,
ffdc,
fff2,
0001,
000e,
ffd2,
000e,
fff6,
0008,
ffdc,
0022,
0000,
0002,
ffbe,
0012,
0024,
ffbb,
0006,
0015,
ffba,
0000,
000f,
0002,
001b,
0022,
ffed,
ffee,
fffd,
0012,
ffff,
ffe6,
ffcb,
fffe,
fff9,
fffc,
000a,
ffde,
fff1,
0003,
fff5,
fff7,
0011,
0033,
0012,
000a,
0001,
0003,
0012,
fffa,
fffa,
fffb,
0007,
ffec,
0004,
ffec,
ffff,
000b,
fff0,
ffea,
002f,
0008,
fff6,
fff2,
ffff,
fff6,
fff0,
001a,
ffe5,
fff0,
0006,
ffee,
0010,
ffe7,
ffe6,
0023,
000d,
0018,
ffdb,
0022,
fffa,
0012,
ffed,
0016,
ffef,
fff2,
000d,
002c,
fffc,
000a,
002d,
0004,
ffe0,
0020,
000f,
ffec,
fffb,
0001,
fffa,
fff0,
fff7,
fffb,
0010,
0026,
001e,
0018,
0019,
001a,
000e,
fff7,
fff0,
0010,
ffe6,
000f,
0005,
ffda,
ffee,
000b,
fff0,
0019,
001a,
0020,
ffec,
0014,
fff3,
0010,
0007,
002e,
0007,
000d,
0003,
ffed,
ffd6,
000c,
0019,
0022,
0000,
fffe,
001c,
0004,
ffd5,
0006,
001d,
fff3,
fff5,
0021,
fffd,
0007,
fff8,
ffe7,
000c,
0013,
fff9,
ffee,
fff7,
0015,
ffff,
fffd,
fff8,
0017,
0032,
ffec,
fff8,
0023,
0002,
fff8,
0010,
ffeb,
000a,
fffd,
000c,
ffec,
0017,
0006,
001e,
ffe6,
fffa,
0008,
0014,
000f,
fff9,
0017,
ffe8,
ffe9,
0008,
0006,
ffee,
ffe6,
0000,
fff4,
001b,
fff1,
ffee,
0035,
0018,
0011,
001a,
ffd3,
ffec,
000a,
fff8,
001c,
ffdf,
000b,
0012,
fff4,
0008,
0014,
0030,
ffd5,
0004,
0007,
ffd1,
ffee,
0000,
000f,
0014,
002c,
000c,
001f,
000b,
ffdb,
fffa,
fffc,
fff2,
001f,
ffee,
001a,
fffb,
ffd8,
0001,
0015,
0015,
ffe1,
0027,
fff4,
0009,
0003,
fffe,
fffa,
0012,
ffee,
0024,
fff1,
ffed,
ffdf,
0015,
0012,
0006,
fffa,
000b,
0004,
ffe0,
fffc,
000a,
0026,
0002,
ffff,
000c,
0014,
000e,
0016,
ffe3,
001e,
ffdc,
fff8,
002d,
ffdd,
0002,
fff5,
0010,
0003,
fffb,
ffd4,
fffa,
fff6,
fffd,
0038,
001c,
ffd1,
ffe3,
0012,
ffd2,
ffd0,
000a,
ffed,
0009,
ffe8,
000f,
fffd,
0016,
ffe9,
000d,
001b,
000e,
fff9,
0019,
ffe4,
0017,
000d,
ffe9,
0017,
ffef,
0017,
001e,
fffe,
0014,
000d,
000e,
ffe6,
000a,
fffa,
0012,
0010,
000a,
ffff,
0014,
ffe6,
0003,
ffea,
fff7,
0016,
ffeb,
fffa,
0015,
fff1,
fff6,
000f,
fff3,
000b,
000e,
0014,
fff2,
0000,
fff8,
0000,
0000,
0002,
fffa,
001c,
ffe0,
fff9,
0007,
000a,
0012,
0009,
ffed,
0010,
0015,
ffed,
0015,
0014,
0016,
ffff,
000c,
001b,
fff3,
ffe0,
000e,
fff0,
ffe0,
fffe,
fff8,
fffb,
0003,
0010,
0027,
ffd6,
ffe1,
ffef,
fffb,
000e,
0028,
fff0,
ffdd,
ffc0,
0006,
ffed,
ffee,
0016,
fffd,
ffdf,
000f,
fff3,
fffb,
001a,
000c,
0001,
0013,
ffe6,
ffe8,
0002,
ffd9,
0001,
fff3,
000b,
0026,
ffd7,
ffed,
0002,
0024,
000c,
0014,
0008,
0001,
ffd8,
0000,
fffd,
0004,
0005,
fff3,
0006,
fffa,
ffeb,
fffa,
001c,
001b,
ffe8,
0007,
000a,
0023,
0000,
ffea,
0006,
ffee,
fffb,
0010,
0008,
0009,
ffe1,
ffdb,
001a,
fffa,
000b,
0003,
0005,
001a,
0014,
0029,
fff5,
ffe7,
ffeb,
0015,
fff8,
002e,
000b,
ffe8,
ffb8,
ffe5,
0010,
ffda,
ffe3,
002f,
ffd7,
ffee,
0002,
ffd8,
ffbf,
0021,
fff8,
0001,
fff8,
0017,
fff3,
0007,
ffe8,
001d,
fff6,
fff4,
001e,
0036,
ff96,
ffa2,
0033,
ffcc,
fffa,
0026,
fffe,
000e,
0009,
fffa,
ffd9,
0021,
ffff,
fff7,
fff3,
0024,
000b,
0014,
ffe9,
0018,
fff8,
fff1,
ffec,
0008,
ffd5,
ffd4,
ffff,
ffe5,
000f,
0012,
fff7,
ffe9,
0007,
000b,
0012,
000a,
ffe9,
001d,
001c,
0014,
ffff,
fff7,
fff0,
000d,
0012,
fff5,
0019,
ffff,
fff8,
0013,
fffb,
ffdc,
0006,
002b,
ffea,
fff0,
001a,
ffe9,
ffdc,
ffe1,
0012,
0022,
000b,
0007,
ffcd,
ffcd,
0007,
0017,
fffe,
0014,
000c,
0001,
fff1,
fff4,
0016,
ffd9,
fff4,
ffc7,
ffeb,
fff7,
fffa,
fff4,
fffb,
0015,
0002,
fffc,
ffe0,
ffc7,
0009,
0015,
0004,
ffe5,
0012,
001d,
ffe8,
0003,
0037,
fffb,
000e,
000d,
0011,
0015,
0007,
0006,
0021,
ffed,
0001,
000c,
fff2,
0019,
ffef,
fff4,
ffea,
ffe0,
ffff,
001d,
000b,
0007,
fffc,
ffed,
ffd4,
fff8,
ffe7,
0001,
0015,
002f,
000f,
ffee,
fff3,
fff4,
ffbe,
fff2,
ffee,
0013,
0024,
002e,
ffd4,
001d,
ffe6,
002a,
000c,
001b,
0012,
0014,
ffab,
ffba,
0034,
ffc1,
ffef,
0010,
ffea,
ffe6,
ffea,
0007,
0005,
fffb,
ffee,
fffa,
ffe4,
fff1,
ffe9,
0008,
0020,
fff5,
ffeb,
0023,
0011,
000a,
fff8,
0002,
ffe4,
0005,
0006,
fffb,
ffe6,
fff3,
0012,
fff3,
0022,
fff6,
ffeb,
ffec,
0012,
0008,
0025,
000d,
fffc,
000f,
ffe1,
ffdc,
000f,
0002,
001a,
0010,
ffe2,
ffff,
0025,
0014,
ffd3,
0009,
fffb,
0002,
ffeb,
ffe7,
0032,
ffea,
fff2,
ffef,
0011,
000e,
ffe8,
000c,
fff4,
000d,
ffeb,
ffe7,
0016,
0021,
fff8,
0017,
0016,
0012,
ffe6,
ffe1,
0011,
ffdc,
ffdf,
000a,
ffe8,
0004,
0016,
001e,
ffd0,
0022,
ffe2,
000f,
fff0,
0022,
0045,
0021,
ffa0,
ffa2,
002d,
ffc4,
ffd8,
ffe8,
fffb,
ffe3,
ffde,
000a,
000e,
000e,
001e,
ffeb,
fffe,
fff0,
ffd8,
fff8,
0012,
fff5,
000c,
000c,
ffff,
ffef,
0000,
0010,
fff1,
001b,
000d,
001a,
ffe5,
0023,
ffe6,
fff6,
000f,
0001,
002f,
0009,
0012,
000a,
ffe2,
ffee,
fff9,
0022,
ffe5,
0010,
ffef,
fff8,
000c,
001f,
0004,
fff5,
fff9,
0016,
ffef,
0002,
ffef,
fff5,
ffe6,
0024,
003d,
ffeb,
002c,
ffed,
fffa,
0015,
ffc2,
000b,
002b,
ffef,
fffe,
000f,
002a,
000a,
000c,
0011,
0013,
fff3,
fffb,
ffed,
ffe9,
0016,
001a,
0001,
ffea,
0003,
000d,
fffa,
0005,
fff1,
fff9,
0003,
0015,
fff2,
0010,
ffef,
0018,
000f,
001b,
fff3,
0011,
0000,
0017,
000d,
000a,
fff4,
fff5,
fff4,
ffed,
000b,
fffa,
0005,
0010,
0017,
0013,
0006,
0013,
001c,
ffe5,
000a,
fff8,
ffec,
ffed,
0000,
0002,
ffd2,
ffeb,
ffee,
0014,
0012,
0021,
0003,
ffe4,
fff1,
fff2,
ffe2,
001b,
0016,
ffe1,
ffe3,
0003,
0017,
ffdb,
ffd8,
002b,
0018,
ffdb,
0012,
0023,
0014,
ffe3,
ffe4,
0002,
ffee,
ffd2,
fff8,
0003,
0009,
fffa,
fff9,
0015,
0006,
0011,
000d,
ffee,
ffe9,
001a,
0029,
ffea,
ffe7,
fffa,
fff3,
ffe1,
0032,
fff3,
0015,
0002,
0001,
ffc8,
0036,
ffe5,
fff2,
fff5,
0001,
0010,
003e,
ffd3,
0026,
001a,
ffff,
0004,
003e,
ffde,
ffc2,
0023,
ffe5,
ffca,
0016,
ffff,
fff0,
000b,
ffe9,
fffc,
000f,
0006,
0019,
0023,
0017,
0019,
001d,
ffd5,
000d,
fff2,
fff6,
0004,
0014,
ffc8,
ffe1,
0005,
ffc3,
fff3,
fff7,
fffd,
001e,
ffde,
0011,
ffed,
ffea,
000c,
ffe4,
0001,
ffff,
0008,
ffe8,
0010,
0010,
0016,
fffc,
fffa,
001c,
0023,
0017,
0001,
0024,
0013,
fff1,
fff4,
000f,
0013,
0005,
0016,
000e,
0021,
fff0,
fff6,
fff4,
0001,
fffe,
fffb,
000a,
0005,
0004,
ffd8,
0015,
002f,
001e,
0000,
0011,
000b,
000f,
ffde,
0004,
0012,
ffeb,
0000,
001b,
fff0,
ffeb,
ffed,
0001,
0015,
fff3,
0006,
ffed,
0004,
000e,
ffd9,
fff1,
0028,
000b,
0007,
fff7,
fffd,
ffe5,
000e,
000e,
0003,
fffb,
0024,
ffe8,
ffdb,
0025,
0002,
0018,
ffeb,
fff5,
fff7,
fff8,
0003,
0012,
000a,
ffdf,
fff4,
ffe3,
ffd9,
ffdd,
ffe8,
fff5,
0005,
ffdf,
0000,
fffe,
0027,
0007,
ffc9,
001e,
0020,
0004,
ffec,
0002,
ffdf,
0017,
0001,
fffb,
000e,
fff1,
ffba,
ffe1,
fff1,
ffd9,
ffe0,
0029,
fffb,
000a,
0010,
0007,
0002,
fffa,
fffd,
001f,
000b,
0018,
fff1,
fffe,
ffdf,
fff6,
0002,
fff9,
0018,
0000,
fff6,
fff9,
0001,
fff0,
0002,
000d,
0002,
ffe3,
fffb,
fffc,
001f,
ffd8,
fff1,
ffff,
0037,
fffe,
ffe8,
ffed,
ffea,
000e,
fff2,
0003,
0014,
0002,
ffd2,
ffed,
fff6,
fff7,
000b,
0028,
0013,
ffe5,
0009,
000d,
0014,
000a,
ffd7,
0012,
0018,
0008,
ffdb,
ffe2,
000d,
0009,
fff8,
000a,
0028,
ffe4,
ffd1,
ffdb,
ffe8,
ffe6,
0000,
fffb,
0021,
ffff,
0012,
000d,
000e,
0011,
ffe5,
000d,
fff4,
ffe0,
0004,
000d,
000f,
fff8,
ffef,
000b,
0009,
ffe6,
001e,
fffb,
ffea,
0016,
0010,
ffba,
0002,
0021,
fffa,
0026,
0027,
fff2,
0003,
fff5,
ffea,
fff6,
0020,
0006,
0016,
ffda,
0022,
fffb,
ffc5,
fff7,
0042,
0041,
ffe2,
0033,
0012,
0020,
0001,
000a,
0019,
ffed,
ffef,
0015,
fffc,
fff9,
0017,
fff6,
fffb,
000d,
fffc,
0006,
0001,
ffe6,
000d,
fff5,
ffd9,
0003,
0008,
000e,
ffe5,
003b,
0019,
ffe5,
001d,
ffe0,
ffea,
0005,
fff7,
ffff,
001b,
0025,
0002,
0025,
ffef,
002b,
ffde,
ffd4,
001e,
002b,
ffe4,
ffc1,
ffff,
ffdb,
ffea,
fff3,
0016,
ffea,
ffff,
001c,
ffec,
ffeb,
fff2,
0004,
0009,
fff7,
ffff,
fffd,
0019,
fffe,
0010,
ffe6,
0006,
000b,
0027,
000b,
fff5,
000b,
ffec,
002a,
ffe1,
ffed,
0014,
fffe,
fffb,
ffec,
0001,
0004,
fff7,
fffc,
ffe7,
000d,
001e,
fff2,
fff8,
fffc,
0001,
0029,
ffff,
ffea,
0007,
ffde,
fff9,
0010,
fff9,
fffc,
ffe2,
0016,
ffe3,
0021,
0029,
ffe3,
000c,
0022,
ffff,
0001,
fff4,
0000,
fff6,
fff4,
000b,
0029,
0024,
0007,
0027,
0009,
fff5,
ffe9,
000a,
0011,
0007,
0009,
0016,
fff2,
0003,
000e,
fff5,
0017,
fff2,
0017,
0005,
ffe9,
0002,
001d,
0002,
ffea,
0000,
fff5,
000f,
fff4,
fff3,
ffd3,
ffe1,
fff6,
fff4,
0001,
0012,
fff8,
002b,
0008,
ffcd,
fff8,
0002,
ffdb,
001c,
fff0,
0011,
fffc,
ffb8,
ffd9,
0067,
0051,
ffdd,
001f,
0040,
ffe8,
ffe4,
0012,
0010,
001c,
fff7,
0007,
fffe,
ffe0,
fffc,
fff0,
0011,
ffef,
ffeb,
0007,
ffe6,
000d,
fffa,
0002,
001a,
0006,
0012,
fffa,
0018,
0013,
0014,
fffc,
fffc,
ffe8,
ffeb,
001d,
fff0,
0002,
fff2,
000c,
0011,
001c,
fff1,
000b,
0013,
0018,
001b,
0010,
ffd9,
ffcf,
0007,
ffc3,
ffc6,
0015,
fffa,
ffd2,
fffb,
ffed,
0001,
fff2,
ffd5,
0028,
ffeb,
0037,
ffca,
fff9,
0010,
ffe5,
fff4,
0044,
0024,
ffe1,
ffa8,
ffea,
ffe7,
ffe3,
000f,
fff5,
0007,
ffe0,
fff4,
0008,
000a,
ffdb,
0019,
ffff,
ffff,
0014,
fffc,
ffd5,
000e,
ffe8,
fff1,
0035,
fffc,
0007,
0019,
0012,
fff1,
ffdf,
fff5,
ffed,
0007,
fff7,
ffe8,
fff4,
0035,
ffeb,
fff0,
fffa,
ffef,
ffe5,
ffe6,
0003,
000f,
ffe5,
ffec,
0008,
0005,
fff6,
0008,
0003,
fff9,
0016,
0027,
ffd1,
fff4,
ffea,
0002,
0022,
002e,
ffea,
0005,
0012,
0010,
fff3,
001a,
0007,
fff5,
fff9,
0012,
0004,
ffd4,
ffe3,
0036,
002c,
ffea,
0015,
0000,
fffc,
ffef,
0015,
fff3,
0007,
0002,
fff1,
000a,
ffe7,
0010,
fff2,
001c,
0018,
0012,
0008,
fffe,
0007,
ffe5,
fffb,
002b,
0010,
fff1,
000d,
fff6,
ffe0,
0015,
ffe8,
ffe6,
fff1,
fff4,
fff4,
ffe5,
fffc,
fff5,
fffc,
fff7,
fffa,
0002,
0010,
0010,
0019,
0005,
ffe8,
ffe7,
ffe6,
0009,
ffe7,
fff9,
fff6,
0002,
ffe7,
001e,
fff6,
fff3,
0002,
0013,
ffef,
0005,
001b,
fffc,
0005,
0014,
000a,
000d,
fffb,
fff7,
fff8,
ffea,
ffe4,
000a,
ffe8,
fff3,
001c,
fff6,
0007,
0007,
0015,
ffe8,
fffa,
000b,
fff8,
fff8,
0003,
fff2,
0013,
0010,
0014,
ffe3,
0002,
001e,
0013,
fff9,
ffef,
0006,
fff9,
ffdc,
000c,
ffe4,
fff8,
fff5,
0003,
001c,
ffd7,
0011,
0005,
000a,
0016,
fffe,
fffa,
fff6,
ffed,
fff1,
fffc,
ffef,
000a,
0013,
fff6,
0004,
fff0,
fff7,
ffee,
fff2,
ffeb,
fffb,
000a,
ffef,
ffea,
fffe,
0006,
fff4,
0014,
fffd,
0001,
fff3,
0014,
ffe3,
0004,
0001,
000c,
0016,
0012,
fff2,
0007,
0001,
0020,
ffe4,
fff8,
ffe1,
0014,
0004,
0004,
0013,
ffe6,
000e,
0014,
0004,
0013,
0005,
0020,
ffe6,
000c,
000c,
000f,
0004,
ffe5,
fff8,
0003,
0007,
002a,
fff4,
ffdf,
fff9,
fffe,
fffc,
ffe8,
ffd7,
0020,
fff9,
0016,
ffca,
fffc,
0019,
0009,
ffef,
fff8,
002d,
000c,
ffc5,
ffbc,
fff5,
ffd1,
fffa,
002b,
fffc,
fff8,
fff8,
0006,
ffe8,
ffe8,
0003,
0021,
0021,
003e,
ffc2,
0004,
0007,
fffe,
ffc7,
0011,
0015,
0041,
ffab,
ffb4,
0036,
ffaa,
ffe1,
0046,
ffff,
0005,
ffe6,
ffe2,
ffef,
0014,
fff4,
ffef,
ffe8,
0023,
fff4,
000d,
0016,
0020,
0011,
0011,
ffff,
002d,
fff4,
ffc9,
0038,
ffc8,
ffe4,
fffa,
ffea,
fff1,
0000,
000b,
ffeb,
000c,
0015,
001e,
0028,
ffe8,
0025,
fffd,
ffe3,
ffe6,
fff7,
0000,
0000,
0022,
fff7,
fff6,
fffd,
0002,
0011,
fff6,
ffd5,
0011,
0001,
0025,
0010,
fffd,
000d,
ffef,
0001,
0012,
fff8,
ffe0,
001c,
fff1,
ffe3,
0018,
ffe0,
0018,
0016,
0012,
fffa,
fffc,
0014,
000e,
ffcb,
0019,
0019,
0019,
000c,
ffe8,
ffff,
0002,
0004,
ffce,
0006,
ffeb,
0014,
ffd5,
fffd,
0035,
ffe6,
ffd8,
0003,
0013,
ffd8,
0011,
002b,
fff3,
ffe6,
001a,
0007,
0030,
000d,
ffe6,
0000,
fff7,
fff6,
ffe1,
0002,
0002,
0031,
ffe2,
fff1,
fffe,
ffc4,
ffe3,
0057,
0019,
ffe9,
002b,
0015,
0020,
fff9,
0012,
fffe,
001a,
0001,
ffe4,
0021,
fffa,
fffa,
fff3,
000c,
fff8,
0006,
0013,
ffda,
001e,
ffe5,
ffed,
0012,
0006,
000a,
0018,
0016,
ffd1,
ffda,
fffd,
fff0,
000d,
000e,
ffe3,
0004,
0008,
0005,
ffc2,
0003,
000e,
fff8,
ffdf,
fff7,
000a,
ffc1,
ffd1,
0045,
0041,
000a,
0024,
003e,
ffd8,
000e,
0012,
ffeb,
fffd,
0021,
fff3,
ffee,
fffa,
ffdf,
0016,
ffd6,
fff9,
0005,
ffe7,
fff6,
002d,
ffd1,
ffe8,
0004,
fff9,
000e,
0016,
fffc,
fff7,
0013,
fff2,
fff0,
ffed,
ffe5,
0006,
fff1,
ffec,
000f,
0030,
0007,
0014,
0009,
fff2,
000e,
fff6,
0008,
000c,
fff2,
ffd8,
fff7,
ffe7,
ffe8,
0010,
ffe7,
000a,
ffed,
ffe1,
000d,
001e,
fff7,
ffe6,
0014,
0003,
0003,
0020,
ffe9,
0011,
0019,
ffe9,
fffb,
fffa,
ffe6,
fff7,
000a,
ffe2,
0007,
ffea,
fffb,
ffe7,
0001,
0009,
0016,
fffa,
ffe8,
0007,
ffed,
0010,
ffeb,
ffe9,
001e,
0009,
000b,
0019,
0005,
000e,
ffd3,
ffd0,
fff7,
ffe6,
0005,
0002,
001b,
ffee,
000e,
000d,
ffed,
fffe,
fff3,
000e,
ffe3,
fff5,
0002,
000a,
001c,
0005,
fff8,
001d,
0010,
0027,
0012,
fff8,
001c,
0002,
ffdd,
000f,
ffee,
ffea,
fff8,
ffed,
ffd6,
0016,
ffff,
000d,
fff4,
000a,
ffdf,
ffff,
ffeb,
001c,
0008,
fff8,
0009,
0015,
ffe0,
ffd1,
0014,
ffd8,
ffee,
ffe4,
0011,
000a,
ffdf,
ffe3,
fffd,
000a,
ffec,
ffff,
0009,
002e,
ffd4,
ffff,
0001,
ffe9,
ffec,
0022,
ffe2,
0023,
ffe9,
ffe7,
ffee,
ffeb,
fff1,
0025,
0010,
0004,
000c,
000f,
ffe0,
001b,
fffd,
ffe4,
0013,
fff9,
fffe,
0011,
000e,
0007,
fff1,
ffde,
0004,
0038,
ffea,
ffd4,
0025,
fff4,
ffdd,
000a,
fff4,
ffeb,
fff3,
ffea,
ffe4,
0026,
0028,
ffee,
ffea,
fff8,
0014,
0002,
0005,
fff6,
fffd,
fffe,
0001,
0032,
0009,
ffee,
ffff,
0015,
fff9,
ffdf,
ffeb,
0006,
fff3,
000f,
0022,
fffb,
0017,
0017,
0003,
ffe0,
fff2,
ffea,
fff5,
ffeb,
ffed,
ffed,
ffea,
fffa,
000a,
0032,
0007,
fff8,
002a,
001e,
0006,
0014,
ffdf,
fff6,
ffdd,
fffa,
0025,
000d,
fff4,
0028,
ffcf,
fff2,
0011,
0018,
fff5,
000b,
fff4,
0004,
ffe1,
ffd8,
fff2,
fff8,
0003,
fff6,
0022,
0006,
0010,
ffea,
0004,
fffd,
fffc,
fff8,
ffff,
0016,
fffc,
fffd,
001c,
0010,
ffea,
ffe2,
001e,
0003,
0012,
ffda,
0008,
fffc,
0001,
ffd6,
fff2,
000b,
ffe7,
fff5,
002a,
ffdc,
0010,
0001,
ffe1,
0002,
fff1,
000e,
002f,
ffea,
0005,
001d,
ffea,
fffe,
0027,
0010,
fff2,
001e,
fffd,
ffff,
0013,
fffe,
ffeb,
0017,
fff2,
fffb,
0038,
fff3,
ffef,
ffea,
0009,
fffd,
0013,
ffe6,
001b,
fffb,
ffe8,
ffe4,
0055,
002d,
0006,
0034,
0010,
000a,
001e,
0011,
ffe1,
fff1,
fff7,
0018,
0000,
ffe3,
0024,
ffd7,
0010,
0029,
0000,
fffc,
ffff,
ffb5,
001c,
0026,
000c,
001d,
0002,
0013,
0002,
001b,
fffd,
fff3,
000c,
ffed,
0010,
fffd,
ffda,
0015,
fff7,
0017,
fffd,
000b,
ffd6,
0014,
ffeb,
000d,
001e,
fff4,
ffc1,
fff9,
0014,
ffd1,
ffe7,
ffef,
fff8,
fff8,
fff8,
ffe4,
001d,
ffc9,
0002,
0025,
fff4,
000b,
ffd1,
ffbf,
fff0,
ffed,
ffff,
0028,
0003,
ffed,
ffe8,
ffee,
fffb,
ffcc,
000f,
ffea,
0003,
0002,
fff8,
0006,
ffe3,
fffe,
0014,
ffc2,
0006,
0007,
fff5,
fff9,
0016,
ffe9,
ffe9,
ffe1,
ffdb,
000a,
003f,
0004,
fffa,
0021,
0010,
fff3,
0011,
0000,
0009,
000b,
ffea,
ffe1,
0018,
fff1,
fff1,
ffef,
ffff,
fff8,
0016,
fff1,
fffe,
000b,
0014,
0012,
fff0,
0017,
0016,
fffe,
0006,
0018,
fff0,
fff2,
ffe4,
0000,
0002,
0012,
fffc,
0014,
fffe,
000c,
fffb,
0022,
fffa,
001f,
fffb,
0004,
fffa,
0025,
0008,
ffe6,
0020,
0007,
ffe2,
001f,
ffff,
fff1,
0002,
0009,
ffe9,
000b,
0027,
ffea,
fff3,
0021,
fffa,
0008,
000e,
0003,
fff0,
ffe2,
0015,
000b,
ffed,
ffff,
0015,
ffda,
ffec,
0011,
0003,
0000,
ffff,
0011,
ffec,
ffe2,
000b,
0013,
0018,
0001,
ffe9,
0010,
0015,
ffef,
ffec,
ffe8,
0015,
000d,
ffef,
ffe3,
0013,
000e,
fffe,
001d,
0005,
000f,
ffe4,
0008,
ffe2,
0012,
ffff,
fff3,
0003,
0022,
fff5,
0009,
fff1,
fff4,
fff9,
0007,
0001,
0030,
fff0,
fff4,
0007,
ffff,
ffdd,
0003,
001b,
0002,
0004,
0013,
000e,
0013,
001a,
fff7,
ffe9,
fff5,
ffed,
0013,
0012,
0016,
0002,
fff1,
fffe,
0023,
000c,
fff6,
0013,
ffff,
0003,
000a,
0018,
0005,
ffff,
0009,
0010,
0007,
fff7,
0010,
fff3,
fff7,
ffe5,
fff5,
0022,
0016,
ffde,
ffe5,
fff3,
ffff,
0008,
ffe5,
001e,
fffb,
0012,
002d,
fff3,
fff3,
0005,
0014,
ffe3,
0015,
000c,
ffd9,
fffa,
0007,
0006,
0027,
0004,
fff5,
ffeb,
ffec,
0004,
0038,
ffde,
ffc7,
0007,
ffdb,
ffcd,
001c,
001d,
fffc,
0015,
fff9,
fff8,
001e,
0011,
fff8,
fff9,
fffc,
0020,
fffd,
fffd,
000e,
0015,
ffdd,
001c,
ffff,
fff8,
ffe8,
0020,
ffeb,
0000,
ffe3,
0007,
0000,
fff9,
ffcb,
0051,
ffe7,
ffdc,
000a,
ffd4,
0029,
ffca,
fff7,
0037,
ffe8,
fff9,
000b,
ffdd,
ffec,
000a,
0005,
ffd4,
000b,
fffe,
ffe2,
000b,
0006,
fff2,
ffce,
0029,
000c,
0008,
0028,
ffd6,
0010,
ffd7,
fffa,
fff5,
fff5,
ffeb,
001d,
fff2,
ffd8,
ffd5,
ffe2,
000a,
0000,
fff7,
ffd7,
fffb,
fff8,
ffde,
ffd6,
001e,
fffa,
002d,
fff0,
ffea,
ffe7,
fffd,
ffe3,
0016,
000d,
0004,
001c,
ffdb,
0013,
0011,
0008,
0002,
fffa,
0021,
ffe6,
0009,
fff0,
0006,
fffb,
002c,
fffd,
ffda,
fff0,
ffd4,
0021,
fff9,
0016,
0008,
fffb,
fffe,
002d,
0009,
fffc,
fff1,
ffed,
fff8,
0018,
fff6,
fffd,
0012,
0008,
000f,
ffda,
0002,
000d,
ffd7,
0018,
ffcf,
0029,
fffe,
001a,
fff2,
fff3,
000a,
0035,
000f,
0005,
ff98,
ffe9,
ffe4,
ffee,
0008,
ffe0,
0000,
fff8,
ffe2,
0003,
0007,
ffce,
0015,
fff7,
ffe7,
ffe5,
ffd1,
ffe8,
0015,
0003,
0023,
0039,
ffe0,
ffee,
ffdd,
0009,
fff9,
0012,
001e,
ffdd,
0001,
fff3,
ffda,
0002,
0004,
0020,
0037,
fff0,
fff1,
001b,
0003,
0020,
0019,
000e,
001a,
0018,
ffe3,
0008,
001b,
ffe5,
001f,
001a,
ffe1,
ffe4,
0019,
ffdc,
0014,
ffd5,
0045,
fff8,
ffeb,
002c,
ffe1,
002a,
ffeb,
ffd7,
001c,
0007,
0012,
0044,
ffdf,
fffd,
ffce,
000e,
ffd8,
fff2,
000f,
ffd5,
ffc7,
fff3,
000e,
ffe2,
003b,
ffb7,
fff0,
0027,
0017,
0022,
ffb4,
ffd7,
ffdb,
ffe4,
ffed,
0056,
fff0,
ffe7,
ffe5,
001d,
ffd8,
ffc8,
003c,
ffcb,
ffeb,
0013,
ffe1,
000f,
0022,
ffe7,
0006,
fff0,
000f,
ffe2,
fff4,
ffdf,
fffb,
ffdb,
0018,
000e,
ffcb,
fffc,
001c,
0003,
0004,
002a,
0017,
0008,
000f,
fff4,
fffa,
0003,
fff5,
ffe2,
0013,
fffb,
fff4,
0024,
fff4,
fffa,
0009,
ffe9,
0000,
0019,
000f,
001c,
ffe7,
ffdc,
ffef,
0007,
0019,
0003,
0018,
0009,
ffea,
fff1,
ffeb,
ffed,
0002,
fff9,
fffb,
002f,
ffe4,
fffd,
fffa,
0020,
fffb,
0001,
001c,
002b,
ffaf,
ffc7,
fffd,
ffd0,
ffc8,
000a,
0000,
ffe4,
ffec,
0018,
0002,
fff8,
0006,
ffe7,
ffe9,
0002,
000f,
fffb,
0011,
000f,
000b,
fff9,
ffe6,
fffc,
fff6,
000b,
ffed,
0012,
0012,
ffdf,
fff9,
ffeb,
ffe3,
0025,
0001,
0004,
fffb,
0013,
ffe8,
fffa,
ffe9,
ffd6,
0021,
000c,
fff4,
0009,
ffdb,
ffe9,
0045,
003b,
ffdc,
002a,
0033,
ffd5,
0001,
0004,
fff4,
fff8,
001a,
ffe9,
0012,
fffb,
fffa,
0009,
ffed,
fffa,
000d,
ffe8,
fffc,
0007,
0002,
0007,
0023,
002c,
ffe1,
000b,
fff7,
000f,
ffe7,
001b,
0006,
ffe5,
ffe4,
0020,
fff9,
ffe3,
0019,
000f,
001d,
fff1,
fffc,
0012,
001c,
fff1,
fff9,
0006,
000d,
ffea,
fff7,
0014,
fffb,
fff8,
000c,
fff3,
fff1,
000f,
fff5,
fff3,
0013,
0004,
001a,
ffff,
0008,
001b,
0012,
fff9,
000f,
fffa,
ffee,
fffb,
000b,
0005,
ffef,
0018,
000d,
fffb,
ffe9,
001b,
0016,
ffe7,
ffe8,
0009,
0002,
0009,
0001,
ffdb,
0006,
fff9,
fff1,
fffd,
fff5,
0016,
000c,
ffe9,
0017,
0002,
000b,
000e,
fff7,
fff1,
000e,
0016,
ffe2,
0028,
001b,
ffe3,
0020,
ffff,
ffe7,
ffdd,
000c,
fffd,
fffa,
ffe7,
fff8,
0005,
ffc5,
0002,
0060,
000e,
0003,
0030,
ffff,
ffd6,
000a,
0006,
000f,
0016,
0020,
fff9,
000c,
0009,
ffe6,
ffcf,
0019,
ffee,
fff9,
fffe,
0017,
ffed,
fff7,
fffb,
0054,
0038,
0002,
0034,
0019,
ffec,
0003,
ffe2,
0002,
fff9,
0009,
fffe,
000f,
0003,
0019,
fff3,
0000,
0011,
0009,
000d,
fffd,
ffe1,
ffe3,
001b,
ffee,
fff0,
fff1,
0013,
001d,
ffe4,
000c,
0006,
000e,
fff7,
0025,
ffe2,
0004,
000a,
fff4,
ffdb,
0004,
ffed,
fff2,
0002,
ffeb,
001b,
ffca,
ffe7,
0033,
ffff,
0013,
0023,
0014,
fff5,
ffe2,
ffec,
000e,
0003,
000c,
ffe0,
0000,
ffee,
0004,
0001,
fff0,
fff3,
0009,
000a,
0007,
0015,
ffe9,
fff2,
0032,
fffc,
0016,
0023,
0029,
0014,
0000,
ffdf,
ffe9,
fff2,
ffcc,
ffe1,
ffd0,
fffd,
0010,
0043,
ffd3,
001b,
0001,
0013,
0002,
ffed,
0011,
0030,
ffc7,
ffbb,
000c,
ffc7,
ffe6,
001c,
ffe5,
fffa,
ffeb,
fffe,
fff8,
fff3,
fffc,
0008,
0012,
ffe6,
0020,
fffb,
fff1,
fff4,
0020,
001d,
000e,
fff5,
0002,
000b,
0027,
fff8,
ffe8,
000e,
ffe3,
0010,
fff8,
0012,
ffc6,
0001,
0009,
ffeb,
fff7,
0009,
000d,
fffd,
ffed,
001e,
fff9,
000a,
0002,
0003,
fff5,
ffd5,
0011,
fffd,
ffec,
0029,
000a,
ffeb,
0008,
0017,
0003,
fff7,
ffe1,
001f,
0024,
002c,
ffe8,
0003,
ffdc,
fff8,
ffda,
0005,
0010,
002e,
ffc1,
ffec,
000a,
ffc2,
fff5,
000a,
0010,
ffec,
fff8,
0021,
0002,
ffe4,
fffb,
ffed,
000b,
000c,
ffde,
ffe9,
0011,
000d,
001a,
0008,
fffa,
fff1,
fff8,
0012,
0013,
fff7,
0011,
ffc8,
0012,
0011,
ffec,
001b,
001b,
ffd6,
fff4,
000e,
ffdf,
fff8,
000e,
ffdc,
001d,
0000,
fff6,
0016,
ffe7,
ffe3,
002b,
0037,
ffd3,
0021,
0013,
fff5,
ffee,
0010,
0001,
0024,
0011,
ffe2,
0017,
fffc,
ffe6,
ffe1,
0001,
ffdf,
fffa,
ffeb,
0016,
000e,
fff0,
ffe5,
0027,
0037,
ffc6,
ffff,
0034,
0001,
ffee,
0000,
0006,
0012,
ffe9,
fffb,
0017,
0013,
000a,
0009,
0004,
0017,
fff9,
000e,
001c,
0005,
0014,
0009,
ffee,
0005,
0011,
ffe4,
fffb,
0044,
0011,
ffdb,
ffde,
fff3,
ffc2,
001b,
0017,
ffe5,
0030,
003d,
0000,
0012,
ffe1,
0011,
ffea,
0000,
0024,
0014,
ffd5,
ffbd,
001f,
ffcc,
ffd3,
fff6,
ffe7,
000c,
fffb,
fffd,
fffb,
fff6,
fffc,
000d,
0004,
ffe6,
ffe4,
fff7,
000c,
ffeb,
ffff,
0018,
ffe6,
0000,
0039,
fff3,
ffe7,
000f,
0000,
000b,
ffee,
0021,
0026,
0000,
003b,
ffe3,
ffcb,
0019,
0013,
000c,
0017,
ffd9,
fff7,
000e,
0003,
000a,
fff8,
ffe1,
000e,
0024,
ffcf,
0018,
0015,
0026,
ffe1,
0016,
0007,
ffe7,
ffd6,
0000,
fff2,
ffe3,
0019,
0026,
ffd4,
fff3,
fff1,
0028,
fffd,
000c,
0010,
002a,
ffd4,
ffc4,
001e,
ffb2,
ffe4,
fff8,
fff8,
ffed,
0016,
fff4,
ffde,
003b,
ffd2,
ffde,
fff8,
001c,
0000,
0010,
fff3,
fff9,
0019,
0006,
fffe,
001d,
ffa7,
ffd0,
000d,
ffdf,
0005,
ffde,
0007,
0014,
fffe,
001b,
fff1,
fff6,
ffe0,
0005,
fff0,
000f,
fff7,
ffdf,
0009,
fff8,
