0014001efff70011
ffdafffb0003fff3
fff600090020ffff
0025000100200049
ffc3fff80031002e
ffb2ffdf0015ffdd
ffe9ffdeffea0018
0024fffa000d0006
fffc001d0038ffe5
ffed0004ffe4ffee
0018003c0007ffe7
001c00070028ffc3
001dffe9000b002c
00070026ffa4ffd8
001f002c0045fff6
ffbe0017ffd9ffef
001bffe9fffeffe9
003cfffeffe70036
ffcf0000ffddffb1
0018001e0012ffd6
000b00280000fff3
00050000fff3ffdf
002e00080015000e
ffe300130016000e
000b000dffe3001c
001ffff3ffe0fff5
ffdf000000130009
0026fffbffe20015
00290034000e001e
ffd5ffd6fffbfffa
0006ffc60005ffef
ffcf0010ffe3fff8
0007ffffffe7ffe1
00070004ffeefff7
fff40016fff9000c
ffe1ffce0007fff7
0009ffe30019002f
ffde002000350012
fff7000ffffbffdf
fff10006ffeeffec
ffed001dffb50005
001fffd30022ffd4
ffdf0031ffc9ffec
ffddfffffffbffdb
0028ffdbfffefffe
0003000d0003ffc4
ffed00220007fff3
00120008001b000d
ffd0fff8004a0003
002e0012ffa30026
ffec0042001dfff1
ffd0ffb00029fff9
0032ffdcfff40023
ffbc002a00010011
ffe6002afffd0013
ffdcfffd00110018
0032ffe0fff3ffec
fff7001700140014
fffa0029fff4fff4
002fffe400290004
fff6000affd30000
ffeaffe100190019
000effe5ffea0004
ffccffe0ffd30011
0009fffaffb1ffd3
000fffebfffd0005
0055000e00070017
fffd00120050003d
ffe200030017ffc9
00060019002bfffa
fff7000effe80000
00160007ffdffffb
ffe600230024001f
ffeb00090013fff7
0020ffe80027ffe5
0024fff80023fff7
000cfff80018ffde
fff9fff7ffe30027
ffe1ffdfffffffdb
ffdcffb600190020
001efffeffdd002a
0006ffb1ff9cffbb
ffe4ffc100050000
ffddffbf0001ffe4
0005002b0034001d
fffb00230020fffc
003c002c0032ffdc
ffe7000d004d000c
ffd6ffceffd8ffe3
fffb00260000ffcb
0020ffb5ffd6ffdd
0059003b00110000
ffbcffdfffdd005e
0062fff0000e0003
ffdeffd400240039
ffd8ffe3ffc9ffdc
ffe50014ffc4ffe7
00060006ffd6fffb
0022ffec001dfff6
004b000e00290033
ffe800210030002b
ffc3ffee00370011
fff4ffa30022ffe5
0024ffeaffd3ffe9
ffc700140001ffa8
0043fff2000bfffd
002a0011fff10045
001000480034ffe5
00010001ffc5ffde
ffd700050003ffe2
fff30016ffffffd8
001a000e000f0020
000afff90001ffed
000f002c0017001c
00460001fff50027
ffb60027ff95ffad
ffacffc80006ffd9
0015ffdbffd90015
00090021ffebfff7
ffb9000d0058ffe4
0018fff1fff30045
001cfff2ffe1fff7
ffe30019000d000d
0034ffb4ffe9fff9
0013fff50011003c
ff8fffe6000c0009
003d00100024001e
0006ffe3fff4003f
0038ffd5004aff8a
fffdffffffcc0016
ffda000f0024ffd9
fffaffccffeafffc
0005ffffffea002d
ffba00240042ffd4
ffe9ffcc0012000b
0055ffe800250007
004f0000005e0044
ffb3ffd6ffda0046
003bffcfffe90048
0000ffcf000b000f
ffa5ffbdffedffdd
fffdffc4fff00001
fffd0017ffeaffe8
ffe7fff90012ffd7
ffefffb8ffd5fff2
ffd4ffc8ffeb0023
0005ffea0015ffe7
001d005700520042
fffc0020001b0025
ffd70018002dffda
00080026000d0035
0007fffbffb0fff6
ffed002b00120003
fff60001000dffed
0016002effc7fff3
0001ffc8ffb8ffdd
00130017ffeeffe1
0014ffe000410001
fff9ffe0ffd00027
ffda000cffd2ffda
ffe2ffbd00130019
0019ffc0ffd9003c
ffc90002ffff0011
ffe2ffdd00060021
0007ffee0002ffef
000c0011ffe6000b
ffd8ffc30041fff1
ffefffe8ffdd0011
ffecfff5ffe6fff3
0011ffd30003ffec
00510049fff70025
ffa7000effe00004
002afff8ffccffad
004e002200330025
ffc90004fff6ffb4
ffd30000fff1fff8
fff9ffbfffc80012
0017002d00020004
ffc3ffc400270035
fff1ffd2ffccffe0
00430049002f0055
ffafffde0042fff6
0004ffec0008002c
ffdb0013ffef000a
002a00010008ffec
ffe4fffa00030018
001b0012000e0009
0002fff3fffd0025
001d00080023fff4
004100460007001a
001f000700050012
ffadffcbffef0032
ffcbffd8ffc10019
ffea002b0001ffdc
ffd4ffeb0011000c
ffe00011000fffea
0009fff9ffcffff6
0009003a0018ffe1
0003000efffa0007
001a001300170010
ffb9ffc3ffdc003c
00150011ffe00006
ffe500230031001b
0014ffeaffe60001
ffd8fff5000affef
ffeaffe5000cfff3
001d001800080012
ffce0005fff2fff7
ffd70012ffe1ffe1
fff8fff9ffd20008
ffe40002ffefffcc
fffa0009fff8ffc1
fffcffbbffc4fff1
fff40000fffdffed
0035003e0008ffcd
004c00280067000b
0014ffdb00210001
fff8000cffdc0031
ffb8fff5fff8fff3
ffdeffdeffe4ffda
ffcffffbffc7000d
00040018000bffc2
0000001f0007001d
fff20012ffe7fff1
0018ffd50002fff1
ffefffeffffc0018
fff4fff2ffd9ffc1
002bffd600010012
0025fff2ffbcfff3
0017ffe2003ffff0
fffe0016ffda0009
001200090023fff4
0009ffdd0016ffdd
0014002700240001
ffe8ffd8fffa0011
0023001a000c0024
ffde0014fffa0024
ffebff9f001cffeb
fff6fffdff960006
fff600050012ffbd
001d00010026fffd
00330028ffd3002a
fff5004200350030
ffe9ffe4fff1fff8
00210032001cfff9
ffd5ffc6ffc1002c
0029ffe3ffeb0000
fff7ffe80008001b
ffe9fff8fff7ffe4
ffd7002500360023
00200036ffd70003
002e006c005e003f
ffe3ffeffffaff90
0025000dfff7ffd2
00090017fffc005c
ffcbffdaffccff80
0023fffb0017ffce
00300025fff60004
000500070001ffde
ffd20002ffdcffd5
fffdffecfff7ffd7
0015fff1001c002a
001b0018ffef0018
005600100016fffd
0053002100020022
fff3ffc300740043
ffe7ffe6fffc0006
0011ffe8ffbdffd8
ffc6ffb70045ffe1
fff9ffb7ffefffd2
fff0ffe4ffef0009
0006005fffd6005b
0038000d00020044
005300010014fff1
006bffdc007fffe9
fff300410019001f
ffdf000ffffdffe6
000e0026001c0061
ffbfffe300420022
ffcfffdafffeffc6
ffebffecffe50013
ffd7ffe60009fffc
ffb1000effd4000e
fff2ffa8fffefff8
ffe6006d00530012
ffe50026002effcf
001a0015ffe0ffe4
ffa1ffe60033ffae
fff7002effd9fff0
000c0022ffa7004f
001cffd8ffcefff8
ffe5fffcffdaffe0
fffffff50020002a
005dffa2004efff9
fffbffd50012ffd7
ffbf0017002bffea
001cffe1ffdeffe1
ffc5ffe6ffeb0019
003effb900020046
00280018ffdaffce
0009ffc9ffd0001a
ffe60015000f001d
ffd20016fffe0015
00030008fff5001b
ffd9fff100000027
ffe90002ffeeffea
fff3ffcbfff2fffc
ffc6fffaffc7000a
fffdfff2ffee002e
fffd000efffdffe6
001dffe5ffe9ffef
000bfff60008ffb9
000c0034fff2ffe0
ffd8fffeffabffd4
ffbcffd5ff93ffdd
00030008ffe4ffdf
001a001fffd4003b
fffb00050032fff9
001e001affe0fffa
001b002c00210019
fff5002b00100010
001dffdc0016001b
000ffffdffd8ffc6
ffbf0041000a0011
ffba003cffd1ffde
0006ffd0ffe6fff2
fff4ffb500390013
003cffd6fff8ffce
0010fffaffbeffb7
001b002200380001
ffe7000bfff5ffe3
00130035ffed002e
0020ffd4ffe5001b
fff8001fffedfffb
002affc00012fff7
00480027fff60009
0015ffdb002d002b
00220023ffbb0000
ffcf0010003b001e
0001ffcc0019ffc6
ffdbffe700050002
001afff0000ffff8
ffdb0015ffc1001d
ffdf001affd2fff8
0002005b002fffee
ffd4ffe3ffec001e
ffe3ffff00280011
000000230005fff2
001300020026fff0
fff3ffcdffdd002f
001dfff90010ffe8
ffbffffe0033ffda
0004fffe0038002d
ffb5ffb100550063
00420011002e0007
ffd6ffd0fff9ff8d
0036ffe5ffd6002d
ffbeffefffc6ffcc
ffd4fff20019ffd8
003c001bffe00003
0014fff2ffc9ffa9
ffbe000b002dfff7
ffe5fff20017fff9
0029ffb800240059
ffe2ffe000230030
fff5001c005affc0
ffe200360007ffcd
ffe6ffda0017ffcc
002c0021fff30005
0064fff1ffca0001
002fffb4ffc5ffe6
ffcfffc2fffd0016
0017ffe00033000f
0042ffbd002f001d
ffe1ffb60037ffe1
ffdbffd7004b001f
001dffd5ffd2000b
ff810017ffce0012
0045ffdc0016005f
0058003affe3fffe
ffe9ffe2002dffce
001affd4002cfff4
fff500120007ffbd
ffe3ffe7ffaeffec
ffd4007affb8fffc
ffcbffe2ffdaffc9
ffe0000effd60017
0006ffbc0040ffc3
00290006ffd8ffea
00330028fff80053
00010002fffd001b
0000ffe8fff2fffd
001a001f0030fff7
00000024006e0032
ffbdffe9ffc2fff3
ffacffa9ffbf000c
0035ff8effad0049
fff80021fff80013
ffe4ffe6ffd3000e
fff4ffe9ffefffbb
ffe6ffc40004ffe3
fffbffaf000f0019
ffd4fff20005000e
0011001300390044
0002003d00170002
ffaafff1ffef0014
ffecffc20003fff4
0007ffe7000effdd
0026ffd3fffeffee
00530027000a0028
fff0ffefffd9ffe2
fffdffef002affc1
fffbfffa003cfff2
0030002b006c005a
ffe5001cfff5fffe
ffc2ffcaffe3ffd3
ffdc001dffed0002
000cfff1ffd9fff7
003f00100009fffd
0059fffaffc2ffde
002600130016ffc9
fff90039fffaffdb
ffcf002c0011000a
ffbefff7ffb70024
00160038fffb0042
00220036003affcf
fffb0031001effdc
0016ffd50037ffc9
000c0041ffd0ffff
0018002900030018
000e004d003d0000
fffbfff8ffa6fff9
ffee002fffd1ffd7
ffe7002e0023ffc2
0037ffc5ff95ffe3
0065ffe5ffcb0045
ffd80056005c0048
00600043ffb7001e
ffbd001e001cffd2
ffa9ffed005affff
ffedffed001cff88
ffb2ffdd0006ffca
fff7001000550001
0000ffa9ffe00032
0060001900720038
001cfff30034ffb5
ffed0016fffbffcf
ffa3000400000000
0035001800610026
006bfff9ffcefff6
ffe1fffd0031000b
0042ffedfffe004b
fff3ffe0ffe6001c
ffe00029ffe1000b
00430049ffeaffd2
0035001e001f0010
ffe6005d00380013
005d001000270017
ffbf001000270014
ffa7ffc200280006
ffdfffe300230029
ffedfff30038ffb8
ffc00029ffbcfff9
ffb9fffd0000ffce
fff1ffd9ffbd0025
ffe6ffd4ffc0ffcc
001bffb2ffaa004d
000cffdcffb2ffbc
00370037ffacff98
0032ffe8ffeb001c
000affdeffe7ffef
fff90006ffe0ffde
fffc001efffbffe2
fffdfff7001f0030
ffeeffe00002ffeb
fff90004ffefffef
0012ffd80024ffe4
00190021fff9ffe1
00000006001b0018
000efff30022ffdd
001b002e0002ffdc
00040006ffe2fff0
00260038fff90014
fff9001f001cffe1
ffed0009fff0ffd4
00100021ffe1000a
000affe1001bffcc
0014ffee002f0014
ffdd002e000dfff3
fff500080017ffff
00020007fff7000a
00140014ffe20005
ffe1ffefffd5ffd9
ffe40012ffef002a
000f0014000c0026
fffe0005fff70002
fff300250022fffe
ffe1fff70018ffdf
0004002b000c0043
001effc4ffeafff7
0000ffdcffef0000
ffdafffdffe9001f
0028ffe3ffe9ffe4
0023fffdffdc000f
ffec0019fff40025
fffbfff6ffe3001c
002afff9ffd4001a
fff500020009fff8
00010022ffefffdd
ffe1003000010021
0019ffe0fff60028
00100029fffb0013
ffe9fffc000fffdd
ffcbfffbffdfffe7
ffd6ffe7ffee0008
00100006000d0003
000fffe9ffcf0006
fff3fff0fffe0021
ffd2ffe90007fffe
0011ffdcfff5ffd4
ffff0016002cfff8
fff2002b001c001a
fff4ffe3ffe1ffdd
fff5ffcfffe70038
ffd50010ffd5ffe7
0026fff8001d0002
000cffeeffe60020
ffcefff50022ffef
000e000cfff40017
0016ffe600130014
fffb0016ffdb0026
fff60038ffdcffdc
ffd70034fff90002
ffef001100090007
fff7000000050026
001400390012ffeb
fffd001d0002fffc
ffe6003e001c0014
ffe1ffd30017ffe4
fff2ffcc0056ffd2
001afff4fff3002f
fff4fffaffbbfff8
ffdf00250049002d
0002000cfffcffc3
fff8ffee002bffe0
fff40019ffe4000a
fff90018ffd0ffe5
00100019ffe00034
fff400190017000d
ffe4ffecfff3ffeb
0003002fffcc0007
ffe80021fffdffff
ffd900340002001c
ffbe0003000e0057
0016ffe0ffccffd9
0024ffd60044ffdf
0003ffe500130044
004effe20010fffb
0037fffd0019fff2
00220008fffcffdd
000a0025ffeafffc
000f001affe7001a
000d002fffddffeb
ffe6fffa000a000a
001cffe6ffd50003
0005ffecffecfff5
fff3ffd2ffe4ffe9
002a000dfff1ffe6
ffd8001affe5001c
fff2fff80022ffd2
001effe90005001b
ffdb001d00050019
00010034001e0019
0006ffeafff3000d
0015000700120006
0005fffbffdf002a
001800270002ffd2
ffdb001a0015ffda
ffe70015fff00012
ffda000d001bffff
0001003600150029
000b0017000cffec
001000380011ffd8
ffe5fff7002cffef
0022ffbf000affcc
ffff0038000bffeb
ffe2ffd7fff30027
0003002b002f0019
ffe80002fff3ffe0
002cfffffff2ffd4
002c001affcf002c
ffdf001effd6ffe7
0009003c00050021
fff70028fff0002c
0003ffde0001ffe8
000a0012ffe00036
fff3001effeaffe7
ffea003cfff2ffef
ffd50002fff3001a
ffe300030019000c
0018ffd7fff8001f
0020001dfffbffe7
ffdaffd5ffe50005
ffdfffe8000efffa
fff8fff7000f0035
ffe800250025fff3
fff1fff5ffe5ffd7
0003ffe3ffe00033
ffe5fff1ffe7002a
fff30007ffebffff
fffd00030014ffff
fff3ffecfffaffec
ffdeffdbffceffee
00150018002e0024
ffe1002a0019ffef
fffb0008fffc0003
0012ffe10006ffee
0011003d0033ffff
000f0028002b0013
0020ffd50013ffc0
fffafff20000000f
00230023ffccfff6
fffb0002fff4ffe6
ffe300260011ffe3
ffe50005000bffe6
0017002800320016
001b0018ffcd0015
0022002e001afff0
ffeefff3ffff001e
001c000a001cffe6
fff9000bfffdfffb
0010ffd1ffb80002
fff10034000d0011
000800250011000b
fff1ffec003cffba
ffe1001900120004
0015002c0020ffea
ffc2fff0ffe4fffe
ffdfffe5ffe9fff8
ffdc003a000f0043
fffcffff0029ffed
fffcffff0006001e
fff100130033001e
ffdf002800120047
001cfff4fff4fff0
001c00170035ffd1
0005ffcc000f0011
fffeffdeffed001c
0012001cffe0fff2
003effceffeaffef
fff600030011001f
fff1fffb000ffffe
ffe7fffefff9003e
ffe90036003e0017
ffef001c000bfff5
0002ffeffff1ffec
0022001b001cffe0
0011ffe3fffe001d
ffd0001d003c0010
0036ffbb000affd0
0018fff20027001e
00210003ffdfffb2
000a0013003efffe
ffef00480045ffde
0001ffd80016fff3
000c0003ffb80009
001600390030000d
0022ffc9ffe70027
0000ffd7ffd30014
ffe9001fffde0041
ffebffe7000e0014
00190019000cffcc
ffe4ffc6ffba0004
ffd1ffb9fff0ffef
00060014ffbf0015
00010002ffd8000c
0014001800240015
ffddffefffd3ffb3
ffc1000d00170023
000efff6ffb80026
0029ffe100120008
ffe000270005ffe1
ffe50001fffd0035
002d00320005ffd2
0005ffee00410013
0021ffeb00330007
000dfff2ffd5ffef
fffffff900010041
001cffe9ffedffcb
ffec0001003bffdc
0003fffdfffa0024
00230036fff3fff4
fff90005ffeaffe5
fff7fff2ffcefff8
fff0002800370019
00190018000f0050
0029fff30015ffc5
ffd8ffd5ffec0014
ffdb0016ffe60019
000bfff10023fff5
001b0009ffce002e
ffe50004ffe8ffeb
ffa9000d001c000f
fffdfff0fff80021
ffc1003b0009ffde
0026003b000c0030
fffc0018ffe6fffd
ffc9001e0004ffef
ffeaffff000a001b
ffe600110013fff1
fff7000d000f0020
ffeaffd80007ffd0
ffddfff70004000b
0004fff8003affe8
ffe600080002ffe9
ffdd00120032fffa
ffe8fffaffe60004
000a00350008fffd
fff3fffc0015ffe7
ffe4ffdc0064ffbb
00150013002ffff7
0009fff3000ffff9
0001ffddffc2ffba
ffe2ffc4ffff0006
00150014ffee002d
fff8ffef002c001f
0032ffe4fff5ffea
000affcafff80025
0025002b0012002b
ffd70003ffdd003a
003900260031ffcd
fff5ffbfffe8001f
0027001500220042
ffff003400040014
0065ffab0015ffc2
fff2ffe6004effeb
0003ffb60031ffff
006200070026ffeb
001c0002001bffbc
001dffe5fff40002
ffdcfff4ffdf003d
ffecfffdfff90013
0023000bffd1000e
0006001afff0ffec
ffd500070000fff6
fffe0020fff90052
00080037000effcc
ffbf001d00080017
00180010fff4fff2
ffe3fff80007000d
0020002a000a000c
001c0008ffdffffb
fff5fff9ffe8fff1
ffd70003fffaffe8
ffe100170008fff1
0024ffee00080011
fff9fff8ffe8fffe
ffe0fffeffeb0030
ffe6001f0021002f
001bfff7000cffda
0026fffa0028fff1
ffddffdafff0000c
fff2002fffed0018
ffe40006ffe9ffee
ffe4000b0013ffc7
002fffe400250009
002200100001fff3
fffb0024ffdeffd1
ffecffb90004ffda
0003ffea000d0013
0001000c0032002b
0008fffb0000ffd6
ffe20011fffb0016
000700380025ffff
ffe2002500470021
001600300024fff6
fffaffe1ffddffed
0031004600280041
00100033fff9002b
002cffb3002efffb
001000040029fff6
00090016fff4001c
004400120011ffe9
ffebffd9000bffee
000e002200260013
0013fff5002d0016
001affe5001f0003
00140013ffe50005
ffe4ffe8ffe2fff6
ffecffe7ffef0004
ffef0013ffe0001b
ffdd0019001c0007
0007ffe1ffeffff2
ffe1002300150037
00190003ffdeffce
00120009000d0012
ffffffd50007ffef
0003000300240023
ffdf0033ffe70036
0037000dffe1ffbb
0016002b0005ffd9
0020000a0000ffde
ffd800180027fff3
fff8ffe3000dfffa
fff20021001ffff4
001f002cfff00017
00000023ffec000a
00160022ffe2fffb
ffea0010000ffff0
0001ffe9fffcffdc
002200260014fffc
fff7fff000150017
0010fff9001affef
002b000c00060026
000fffee0025ffd2
fffe0003ffe40007
001a001a002d0007
0016ffd8ffcb0003
00170002000efff8
ffdc001cffdf0030
00080003ffceffe2
00030013002bfff7
fff70015000e0017
fff7000d0018001d
0022ffcd0012ffe2
0002001cffeaffde
ffd6ffcdffe9fff1
ffecfffb0011ffda
002c000dfff20033
0042ffea0015ffdf
fff0ffe7fff70027
fffaffe80005fffe
000e001c0020ffff
001300180002fff0
00140027002efff3
ffe5000e0008ffe1
ffd3ffdeffe6ffea
ffbb0026fff2fff4
000b0002000d0003
ffd7fff900210035
ffd6fff1fff50006
fffdfff10009ffe6
001dffffffe6000d
fff4ffecffd8ffe7
00250017001cffe1
00180022fff1fffe
fff0ffbdffe3000d
ffe3001000060016
0000004bfff3ffee
0013ffd90016ffdc
0020ffedffda0009
fffc001200240005
ffe5fff3ffd60011
000a0021fffb0004
ffe6001effdb0035
ffecfff5000effd6
0006001100310008
0017ffc8fffbffdd
ffedffcdffec0009
000afff0ffd60031
00040011000b0014
0014ffe5fff50017
000dffd3fff3ffc8
ffe6ffccffd4ffe0
000c0032ffcb002f
fff9fff6fffeffe7
00100014000a0023
ffecffe6ffad000b
ffd9ffafffe0fffe
ffe60002ffc7ffef
001f001a0000ffe8
0026ffe5001bfffd
000c0018ffdc0006
0007ffddffe00033
000cffd9fff9001d
ffe7ffebfffeffe1
ffdd00240006002b
ffef0018000f0013
0034000dffdcfff0
0000fffb00070037
00010029ffe9ffe9
ffd7000afff70024
000fffde000a0010
0021fffaffef0005
ffffffcaffe50008
ffe80002001c0007
fffaffd60006ffed
0029000400170006
fff1ffeafff8fff2
fff5fff9ffe90012
fff0ffeffffdffda
ffeafff4fffc0005
000d00200016000c
fffcfffb00150008
000bffdc000cfff5
ffe8ffc60017ffd5
0021ffee002dffda
ffe1ffe00009ffee
ffd4ffe8ffdeffee
000efff4ffb10025
fffa0007ffdf0011
0001fff4002affea
0007ffe6fffffff1
00020012ffe9fff3
0005001cffcaffea
ffe7fff0ffd00008
fff7ffde00290022
ffddffda0012ffc0
ffe3000e0006ffe0
001affd9ffc90023
00000000ffe3fffe
00090008ffe0ffe3
ffe5ffedffc3ffbc
0030ffeeffddffc0
ffd0004f0010000f
fffefffcffb4002b
fffb0001ffedfff5
ffc80016ffcafffc
ffde001affedfff4
ffb900150012001e
ffeb000b0011000c
0011fff0000f0009
0007fff60008ffe6
0016ffd6ffddffd9
000d0023ffecfff5
ffd6ffe6fff60009
fff10022fff6fff1
ffd5ffedfffeffdc
fffb0004ffe1fffa
fff3002efffd0045
ffd40005ffed0037
000a0012ffee0000
000bfff1ffd00001
ffedffe5ffc1fff3
ffcb0011ffcb004a
ffed00050000001a
fff1ffd3ffde001e
0019fff400000011
fffe002200100027
00290005ffd30007
fff4ffdb001effe4
00140009fff4ffe4
0021fffd0000fffc
00300002ffdd0011
001e0000ffecffd6
0011ffda00040027
002dffdcffedfffb
ffd1000cffdfffe3
0029ffeaffdb0006
000dfffd00120008
fff10037ffe90015
fffe0022ffdbffd7
00030030001bfffd
ffe9001effdb0003
ffe5001e00340016
000c001bffedffec
ffdbfff60022ffe3
ffdefffdffec0024
ffdd00020024000a
ffe6ffee000e000f
0012002c00050009
001e0007ffe6ffd6
0009ffee00090026
0029000900040001
fff0000afffcfff1
0007ffe6ffbe0011
002200520005ffee
000c0002ffee0031
ffeaffd5ffc0ffea
ffcb00230001ffec
000dfffcffc40052
00070059ffd7ffca
ffd6ffd40016ffe7
0019ffc1ffecffce
ffc6fff300030023
0002001100110023
fff7001effd0ffde
00020000ffebffd8
000dffffffc8ffd2
fffd0023001d001e
ffe5ffd9fffd0014
001a003afff30001
ffdeffc6000a0012
000bfff4fff5ffe6
000b002100220029
0006ffedfff4ffcd
ffc7ffefffe9fffe
fffb0018003f0041
fff7ffdaffccffcc
00100018001d0019
fffdffe10024002d
0002fffbffea0000
ffcf0008fff1ffe7
ffeeffb4fffcffbb
00260042fff50003
ffd3000000180019
00020018fffafffd
ffde000500330056
0026000f0004000b
ffecfff5004b0015
000cffee0013ffd0
ffd3fffc002c0036
002c0015fff30041
ffea0011ffe4003f
006effb2ffee0011
001f00010060ffae
0041ffc5003a003c
0066ffd5001f0006
fffbfff0fff6ffd9
0034fffb0007ffa1
000bffd3ffdcfffc
0000fff80009000b
000b00060025002a
00200004ffe8fff8
fffc001c00070016
001dfff8ffe1ffe1
0002fff8ffdf0015
0016001200060018
ffe8ffd7fff6fffd
0013ffed00200041
ffeeffcefff2ffe7
0010000f000c0038
001affe1fffa0005
002cffe20010ffee
0013fff00001fff7
000ffff200120003
0017000bffdc0021
fff7fffdfff4000e
000d001d000c0008
fff3fff700220003
ffebfffb000d0013
ffff0034fff9fffb
ffcffff70021fff5
0001000affd40008
0007ffe2001b0035
0029ffd4ffc9ffd3
fff2001800140033
ffe9ffe5ffe60025
fff7ffcfffe0002a
00150015fff20029
ffd900080013ffd8
000a001200260004
ffea00110006ffe3
fff8ffe10000ffe1
ffdf0005ffdb0029
0007ffcf0014fff1
0011fff7ffea001c
ffe9ffdbffe20008
0004fffcffeeffe1
fffc00150018003f
00140015ffdd001b
00190021ffe80019
ffef002e00070006
ffcd00040014fff9
0010ffd0ffd4ffd9
0011fff6fffcfff4
ffe3ffefffe00001
0021ffe3000a0002
0004001300030003
001c002400170026
ffe4001effdaffd9
fff8fff5fff7fff8
001dfffe00390002
ffd800200017ffe9
ffeeffd3000b0015
ffd900020027ffe5
fffb0006fffdffce
ffe2001c001f0006
000effe40007ffdf
ffef001d001c0006
0003001700280018
0010ffe2fffd001d
00280006ffe7ffde
002bffe90004fffc
0013fff1ffd7fff2
ffecffe90002fff8
fff0fff5fffcfff2
fff1fffdffecffe7
fff3000b0013000a
00300018ffbf0000
ffdffffdffeffffd
000c0019001efff2
fffeffdefff6fffe
ffc8fff4fffd0029
001affffffbe0038
001e00090018ffe3
fffb0002ffedfffb
ffe80022ffec000d
0037ffd6000a001c
0017ffe60008ffee
0009fffcfffc001e
003e0010ffd5fff0
002bffd2ffe0ffc7
001dffeaffe6ffac
ffa900500027fff5
ffef0032ffdd000d
ffdc0023ffffffea
ffa80044fffe000f
ffca00150003ffde
ffb400090022002d
ffcf0020ffefffb1
ffdc00180009001a
0013ffc800260014
0031fff60002ffe0
fffdfff8fffc001d
fff50026ffedfff9
0002fff80023002a
0036ffea00310023
ffe600050019ffd7
0000fff600180007
ffebffd100000008
ffe3ffd700350003
ffe50028ffff0010
00320021004dfff9
000bfffc0013ffe2
ffe0ffdf0008fff4
fff0fff100060006
fff2ffd1fff50009
0013ffec0024fffb
0006ffdeffd2ffdd
fff5ffd7001dfffc
ffeb001dfffffffe
0018ffa1fff6ffd1
ffe7000affe6fffb
0043003aff9b0045
ffd5ffdcffba0017
0015fff0000cfffd
0020ffddffd20026
ffd0fffb00140030
ffed0027fff3000f
fff9ffd8001fffe4
ffeb002600070039
000affc0ffcdffb8
0040ffd6ffc1ffd4
fffb0016ffc00006
ffceffc700100039
00280019ffb80002
001cffb3fffdffc9
0051ffe0ffcbffd3
ffa3003900230026
fff00043ffea0064
ffcafff8ffb6ffec
ff930016ffee0007
0001000bffdd0035
ff960009001d0024
0002fff2fff1ffe6
fffbfffd000f0002
0016ffe4fff1001a
002a0003ffde001e
002c0017ffd50038
0008001c001cffdd
002dfffa0017001e
0029ffd5ffdf0013
ffe8ffd500230007
0041ffca0002fff4
ffdbffdd001affeb
ffe2fff4ffffffde
0027002b0010fffc
0002ffd60012fff8
fffbfff6ffff0001
0017ffd4000bffe9
fff2ffef00140008
ffffffe10002ffd9
003bffec0003fff8
ffe70012ffc9001e
fff7ffdfffe70018
0016ffe3001b000a
0026ffd2ffbbffe0
0017ffdfffc80030
fffefffbffd50015
0002fff5000c0019
ffe4000e003c0024
00120013ffd7fffd
00080001001c0025
0017fff9ffeeffef
ffe1000c0003ffe2
ffde001d00090030
0013000a0003ffe8
001f0008ffd7fffa
ffe6ffe80000000d
ffef00010020004a
fffbfff4ffc6ffe2
0016fff60025ffd7
002affe0ffe7ffc9
ffcd00130039ffe5
0018002cffe00028
ffed002b00080002
ffbb000cfff50029
fff20024000a001d
ffee0005001c0006
ffe2fffe000fffcb
ffdefffcfff7fffc
ffeeffe1000b0014
00070002ffeb0009
00040002ffe50010
ffe1ffd9ffff0001
000cffe6fff3fff7
fffcfff30022001d
ffe70004ffeeffd3
fff6000b000dffff
fff8ffce0018ffe3
0024ffff002b0028
0029ffd20029ffe6
fff90016fff2ffde
ffdbffda00270023
ffedfffd0011000a
ffddffcf0021ffe9
0027ffdc00220012
000400230011000c
fffd0019ffecffd9
ffe4ffbe001f0000
0020000a002a002d
000afff2ffe1fff2
ffe5000cffcfffdd
ffec003affe90032
ffd6fff2ffd6ffce
ffe30007fff90025
fff90010ffd70011
ffed0018fff80016
0002ffe3ffdcfff2
001fffccffe30007
ffde001400360025
0023fffcffdafff7
fffeffc4ffe0ffdd
002b0024ffdefffc
ffe1fff60017000b
002cfff40000001e
ffffffeeffdaffec
0024ffc50013ffc4
fff30020ffe5ffd2
0005001effd60027
0002001bfff6ffd3
ffc800240010002a
ffd1001cffd8fff5
ffc700190033ffe5
002f002e001cffe2
001c00140024ffed
00240016ffe90009
0019001c0033ffff
0000001cffd7ffed
001b0002002fffed
fff1fff7fffa000b
0028001fffe30001
00160012001efff9
fff70015ffebfff0
0004ffeb002cffd0
ffe6ffcc00110010
002c001afffb0020
ffe20015ffff000c
fffc00030016ffc1
0020fff20026fff7
ffebffd40024ffe2
fffe000b0009fffc
0008ffdefff1fffc
ffffffe50004ffdb
0017001cffdcfff8
0022fff1fff4ffe9
0029ffdb001cffde
ffe7001dffecffe2
fff70010001affe7
fff5fff1fff2ffdb
ffeb0004fffbffec
ffee002000260004
ffe90012002a002b
0017ffe90027ffef
ffdcffe9ffdeffe8
ffee001a003bffea
001f001efffffff8
000dffd1fffb0000
0013ffe5ffcfffea
ffdcffda0001002c
ffdeffedffe2ffd0
0003ffd40021ffda
00160029fffcffc3
ffca0039fff30017
0014fff5ffd40000
ffe70005ffddfff2
000cffe20005001e
ffef000400040018
ffd40003ffeb0018
0019ffebffd8ffdf
000dfffd00050015
0017fffefffbffe1
000b0001fffd0004
0014fffdfff10015
0032002a002dffcf
001fffe700120023
004f00020016fff3
ffde000a0023000e
005affd2000effd7
001bffdd0037ffd8
00020015fff50031
0027000f00030016
002effccfff7001c
002effec0003000a
0007fffefffc0001
ffe60030fffb000d
fff6ffff001d0013
0006ffd1ffd6ffd3
0010fffb0008fff4
000ffffeffd1fff4
0008fff10028ffe7
ffedffecffbfffe3
ffffffd9ffc90032
000fffe0ffb50035
0013fff8ffeafffb
fff5000c001c0006
0048fff9ffd80029
ffeefff700080009
004dffdf002bffe8
001d0004ffd20020
ffd8001dfffcfffd
0022ffe5ffdeffc0
fffa0007ffe5001b
ffff0001000fffe5
00060018001b0021
fff600050008000f
ffcbffe1ffeaffdc
000700040002ffd0
ffc000030015001c
ffe8fff3ffec0033
ffe30043ffddffd4
fff70001fff50021
ffcbffd7ffc9001c
ffe9001e001e0037
000bffe1ffcfffdf
ffebffeafff50019
ffe20028fff1ffdd
0013fff2ffef0029
001cffea0000003f
ffe2ffe2001affe6
0004ffd5001e003c
001dffe60025fffa
000e0029ffe20007
0044ffe600440031
fffffff0001cffcf
ffed0003000fffe1
002dffeb000f0013
fff10013001c0003
000d00110034ffd4
00230024ffde001b
ffec002b00050001
ffe8fffb00280004
0018001400150002
00170008fff90026
000dffd2fff6000d
0008001f001effe4
ffccffcfffd6ffc3
ffd2ffe3fff4001d
003c0034ffad0040
002affffffe10001
00160000003bffe8
fffaffdcffe3fff2
ffd60028fff4004a
0027ffc8ffeeffd9
ffe30020001effdf
ffecffe4ffe40001
001afff8000bfff8
0031ffd9ffe6ffc6
0007ffc7001effc5
ffdaffd8ffd90068
00230006ffe1fff9
ffdbffc2ffddffdd
fff0ffc3ffc7ffa8
ff860024002f0031
fff00014ffb8005f
fff70041ffec000a
ff990033ffe2000b
ffc5ffe9ffcd0032
ffa3fff0ffda0009
fffc000fffe4ffc8
000300010024001e
ffdffff3fff50018
fff3fff50000fffb
0010fff9002c0028
00010014ffddffb0
001d001d000c0025
ffed001f0006fff7
fff0002afff00020
0032ffaf0005002b
ffffffee0033ffd9
ffecffdc000e0010
003affd900210033
0030ffe200190012
001b000d0043fffd
ffda0022000affea
fff4ffdefff90029
0022ffecffde0026
0026ffe50024fff4
0013ffff0005ffe2
fff4ffddffc90005
002100270036ffcb
0002ffc8ffdaffd5
ffde0016ffce0037
002f003eff9f0045
0006fff7ffd8001e
0023001400200002
001cffecffa10008
ffe5fff2ffed002e
0019ffdfffb30015
0023ffce0016ffe8
ffca0007fff6fffc
0006fff9002afff8
000bffd8fff1ffd0
ffff000bffe2fff8
ffdcffdd001c0036
0016002dffe6fffa
0011fff3ffe9ffdd
0014ffc2fffaff93
ffcb004300100027
00200042ffe4003e
ffd20013ffb8ffbe
ff8b0049fff3ffff
ffdafffcffeb0026
ffca000bffff0022
fffdfff3ffe70039
0018000f0011ffec
ffc9ffea0018fff7
0004fff3000b000c
ffd9001d0008001f
0007ffcf00030038
fff60024ffff000a
0011ffd2fff2000a
fff9ffc5ffe00003
fff20033ffc20039
00240000fff40028
fffcfff5ffd7ffec
ffcc000effeefff5
0003001cffd2ffe6
000400130014000d
fffdfff9fffcfff2
001f000b00000003
ffd900310036002b
ffe300120000ffda
fffaffe10006ffd4
0005002fffe30005
00080017ffdaffd7
00060034002b0007
001400240025fff5
ffddffeb0020fff1
000d001f0035fff9
0001ffd8ffef0038
fff90020001ffff9
0024ffe0ffd40005
0008ffd8fffefffb
ffccffd80005fff0
000fffd0ffefffed
ffe0ffcaffedfff6
fff50002fffa0001
001b0016ffd60023
001a00110006fff0
000bfff3002b0015
002e001dffe9fff8
ffcdfffdffec0009
001cffd600000020
ffe4fff0000e0011
002afffc0005000f
fff50003fffb0004
0028ffe0fff00007
002cffe4ffbfffd8
0020ffe40009fff4
fff1ffe2ffe60008
0003fff3fff9ffec
0024001afff70005
ffe1ffdafff20001
000300050000ffee
00020024ffef001b
00030019000dfff7
000f001e00090001
0023ffdd0012000c
ffeaffe6ffd80003
fffa00060023ffdf
ffde0015ffe50026
0018fffe0011ffe7
0019ffeb000affe8
fffb000bfffb000a
00140018ffd10005
ffe0ffea0002ffe9
00170026ffe1ffc8
001b0015002affe8
001d0015001b0025
001bfffaffe5ffe4
ffe50018fffd001b
00040019000cffe5
fff5000600330006
fff4fff50018000b
00240013ffe2ffe1
ffed0014fffeffe9
fff8ffe7ffda0005
fff8ffe7001e0002
ffd8000d001cfff6
ffec0021ffeb0018
002ffff1ffdc002a
000c0012fffcfffb
0012fff40019000b
00250030fffcffd6
ffcf00170023fff3
002cffe100030029
fffefffefffe003d
004efff10012fff1
0029ffe40015ffd6
000afff800380018
0042fff6fff9ffed
002affc9001effde
0006ffddfff7ffd7
0001002f00130009
001b00100008fffd
00080032fff0ffff
ffcfffe3fff00002
ffe50013ffc00006
002f0022fff3fffd
0019ffe400180011
00180027001dffe0
ffdaffe6001afffa
0035ffc8ffd7ffd0
0007002d0001ffd7
00110001ffe6fff0
00270016fff9fff2
fffd001700120025
fff1fffbffeefff4
000b002ffffb0030
ffd5ffff0018fff3
0021fff2fffcffeb
ffda000400090002
0012ffe70015ffe3
000effe5ffeaffe9
ffdf001bfffa0019
ffc80016fff3ffbc
fff4ffda00090028
ffffffe0ffd4002d
ffe9002e00020008
fff5ffe900060036
00040001000e0027
001c000e0024001d
0021ffb800010011
001c00380013ffe3
ffeeffeb00340005
fff00001003a0012
ffd0fffb002a0001
001efff9ffebfff2
0003002fffe0fffa
ffe20020ffcdfff9
0012002c002b0011
ffda000a001effd0
ffb1fff000340002
ffd4000effc3fff4
ffd500260016fffe
fff4ffed0016fffa
0003ffd8ffd0ffe6
fff20033001f0044
00250024ffd70031
001c000dfffe0010
000fffe50016ffce
ffe3ffef00140011
00000021ffd9fff7
000dffdc0025ffef
000d0001ffe6ffeb
001bfffdffe0ffee
00070024001fffe7
fff9fff1ffe8ffbf
ffe90026000e001c
fffd0018ffe50027
fff60004fff1ffd6
ffe0001bfff0001b
000dfff5fff60006
0014002dffe80033
ffe00023ffd2ffd3
001d0037ffea0018
fffefff8fff5ffe6
ffc4000afff90015
fff40026ffe0fff1
ffceffeaffd40009
ffe0002c000afffb
ffea0027000f0004
ffcaffd80028ffdd
0001fffe000bfff3
fffcfff3000fffef
001e00270017fffd
002cffd4fffc0010
ffedffd40017ffca
ffe6fff3ffff0012
001700030008ffcc
0008001d0004fffd
0003003a0040ffe5
fff900180020ffd5
ffe6002700130016
fff3ffce0008001b
fff60033001bffe9
ffdb00290017002e
fffcffb9ffdeffd8
ffd4ffc10000ffcf
ffea0022fff50007
002cfffafffffff2
fff3ffea00210001
001effea000b002f
ffe40012ffdf002a
fff4001e00100023
ffdc00310016ffcb
ffddfff30010ffe3
ffd5ffea0013001d
002d00100023ffdd
ffe8fffe0004fff0
001b000a0003ffe0
0006fff500120011
000c0005fff2ffce
0024fff3002affcd
ffe2000cffe90034
001c0009000d000f
0007ffff0011ffff
0038ffff0022ffd0
ffeeffe70022002c
ffe2fff6ffdaffe3
ffecffed003c001c
0027fff1fff5fff4
ffeb000f00220006
fff4fffc0010ffef
ffee001a00120005
ffefffe30028fffd
ffebfffeffd30007
00290011001bffeb
002000320010fff1
00110006ffe40008
fff70009003d0041
00280007ffde0005
0035ffdd0011ffcd
00050009ffd1ffde
fff6001500290002
ffe5ffdbfff4ffe9
fff8ffef0003ffec
000affedffd4001c
ffec002cffcd0026
ffd00017ffdd0021
0014ffffffddffec
001c0004ffd4002c
0008fff5ffedfff5
000b000c000effec
ffecffe300270042
fff0ffef00100008
fff1fffffffc002b
0034ffeafff2000a
ffe4001bfff3fff6
001a0025fff3ffeb
ffe2002c000affe0
0017fff7fff6ffcd
ffd90002ffdfffd7
ffe8ffd0000dfff3
ffd5fff7001d0014
ffde000c000bffec
fffcffdeffd10018
ffcb0013ffcffff1
fffc000d0006ffd0
000b002500200017
ffdaffe4ffbeffe9
0025ffd0ffc5ffdd
fff80028ffb1fff8
fffcfffefff50009
0009ffe900220007
0017fffefff8ffd2
0009fff100210019
000b000afff40002
000900350002000c
ffdeffd4ffe20002
ffea002c002b0006
ffedfff6001a0007
000dffe50000001d
0015fffc0017001f
ffefffd8fff6fffe
fff7fff6002bfff7
002bfff5001cfff9
ffd3000f0006ffe8
ffdd0033ffe20016
ffee000dfffaffe5
0010001effdd0008
fff20029001a001c
ffda0004ffd20009
fff4fffaffb8ffd5
ffee000f0002001d
0013fff1ffdc0004
0006fffe0010001b
fffeffd3ffae001c
ffdcffc2fffdffc6
000b000e00460024
0008ffd0ffe1ffff
fff8001f00270038
00400017ffbc0003
fff0ffdeffed0053
00160028ffe2ffb8
0026fffaffeb004a
0009ffe6ffe00012
0018ffe7001afff6
0020000000190017
fff60039000fffda
fff80006fff70005
ffdd0028001efff6
ffe100040013ffc6
0014001a00120022
fff20014ffbeffc8
ffd1003b0008000b
fff3003effe70006
00000011002cffd5
000a000b00020036
000b002cffcbffcb
0013fff7fff50027
ffc7fff50008000f
ffd30027002c001f
002d0027000b0020
00200008000b0025
fffd003000220004
002cfffeffdcfffd
ffd8fff50064ffe4
00190023000e0039
00000005ffb6ffe2
ffe3000fffe5ffed
ffcaffbffff7fffe
0020ffe9ffe00035
0007fffe0028ffd8
000800260018ffff
0010ffe30009005c
00280032ffd50011
fff9004b002c0054
0042002b0055ff93
ffe4ffd2fff90026
004f001b001c0068
ffd60004fff6002a
0073ff92000bffa1
002b0001005dffa0
0040fff3000d0023
0062ffcfffff0015
0036000affe8ffcc
0037ffd50032ffd5
0016ffd8ffea0001
0015fff70015ffe9
ffdf0009fff4ffdb
0000ffe60012ffd3
ffc6fff10009ffbf
fffdffeaffda0025
000ffffd00080025
00170007000affee
0011000e00090012
ffaa0028fffd0018
002affd600190022
ffe50003ffd90012
fff4ffd3000fffd3
ffe0ffdb00000015
ffdc0026ffdafffd
002e00100020fff1
0017fffa001d0015
0017fffdffe6ffdc
fffbfff6ffeefff8
ffd5fff60005000b
ffeb003c001dffe3
ffd9ffd2fff20001
000a0033003bffeb
0008002a0020ffed
ffdd0005001cffe0
001ffff1003affe7
ffeeffd2ffe2ffee
0004000800540030
002cffe6ffd3fff3
ffea00120026000c
000d001d0000000a
000afff4ffdb0017
001e0028fffffff7
fff8ffea001f0010
fff20004ffe8000a
0017001dffd0ffb6
ffbdfff3003d001d
ffd80011ffffffed
0006003dffef0039
0011ffccffc60018
0002ffc90019ffa7
001ffff7002c003a
0053ffeb00380004
0042002b001c000f
002bffdb0014ffc8
ffcafff600140039
0012ffe8fffdfffe
fffc00080006004a
000f001e001a0003
0010fff00032000b
000c0004ffc9004d
ffecfffc0008ffb2
ffdaffe900240031
ffe40017001b0016
fff5ffe2000c0029
0024000afff30034
0013fff0ffd3ffcf
fff2ffff0005ffe8
001700340015fff7
ffe3ffea0004ffe9
ffc8fffaffd4002b
001a000c0025001e
ffdf0004ffd10043
ffff0009ffdd000a
0014000100000000
001f00040018000e
ffeffff8001fffe2
ffdeffe200030020
0012ffd7ffe9fff2
002100150018fffd
000f0015fff40008
00130001ffe60006
ffc5fffeffd6ffb2
ffb6ffa4ffe9ffdf
fff40044ffd2003a
000bffc5fff60030
ffee0021fff10008
0009fffcffcd0002
00240003fff6000d
0009001fffde002c
0013ffdb0040fff6
0032ffdb001d001d
0016ffccffd50047
ffe4fffd0016fff8
0072fff2ffe8ffb3
0016003d004e0001
00350003ffebffef
00380037ffe20006
fff00010000c0016
004b000a0015ffe1
000bffddffc7000e
002100310006ffdf
ffc70018fffa0038
000c0034ffd8fff7
000afff2001d005e
0018fff4ffe6fff3
fff7000a0017ffdb
ffe5001800040031
fff50003fffb0012
0029ffce0026002d
fff4ffdc000fffeb
00260031ffe5fff9
ffe8000dffd50030
ffe6ffdefff4ffc9
0014000d00540032
ffd5ffebffc7ffec
ffe00023ffdc000e
ffeefff6ffe10039
000d0001ffda000c
fff5fff000230016
0027ffa1ffe1fffe
fffa002cfffbffd8
ffbeffb5ffaafff9
ffddffc0fff20034
0038001effac0072
000effe5ffcb001f
fff80031000e0007
ffeaffeaffb2ffb4
ffadffe300120034
0041002cff960027
0003fffd0009fff1
001afff5ffe90032
fffcffcfffe90016
0022fffaffe6ffc7
0035ffeb0002ffdd
0013ffff00230009
000cfffaffb4fffc
0023ffcfffd80008
fff4ffb8fff1ffae
ffd7002e00120016
ffe50021ffeb006d
fffc0036ffb9fff1
ffcc0016ffd0ffe1
ffabffadffffffe2
fff3000d00190052
fffe0000ffedffc4
ffd8ffc50002ffec
001b0028000dffe7
ffedffe40006003c
001afff5ffcc0001
0009000e0037ffeb
0013ffd8ffe9000b
004ffff10016ffe3
001cffeffffffffc
000fffdcffe90003
0014000f001cffe0
ffe6fff80030ffec
0030ffe8000d000a
ffe2ffe1002cfffb
fffa0021002a0018
ffeb0029fffd000e
00040005001afff2
ffe1fff4ffef000d
0013ffd7ffe90023
000a0006ffec001b
ffe9000d000d0006
000bffeefff70015
0018ffdaffdcffe7
ffed000bffe00019
00280035ffb3002c
001d00030020ffdc
00260009002d0008
002c0006001c0001
ffdf000800260026
fffb001dffe10026
0007ffeb0013001e
000f002700270030
0019001e0008000a
fff9ffd0fffafff3
fff1ffd40012ffcc
ffe4ffe9fff80040
0026fff1fffcfff7
0011ffe1ffe8ffd1
000affee0007ffda
ffb5fffe0022001b
001affe8ffcb0058
0002000cfff00003
ffd500270002ffd8
0003fff5ffd2001e
ffdd0035fffa0055
fffb001d0024fffd
0011ffee001a0003
fff3ffdbfff60023
003c000300160019
ffe000320026001a
ffdaffd600020014
001d0019fff5ffe4
0008fff4002cffdf
0014ffe80002ffce
0010fff600000001
ffd100030011fff9
ffe8ffd0001b0014
002bfff7ffeffff1
001dffec0015001f
001b001300140015
00240000002bffd0
0015ffe5002cfff6
0003ffdd0019fffa
00090013000d0031
ffecffd5ffcdffff
ffdfffd9002cffd6
0011ffdd002d0019
0015000800000010
0033000fffe3ffd5
fff60006ffcd000e
000e0007ffedffee
0022ffd90047fff8
0030fff4ffe70029
ffd7ffe500300013
0025fffdfff4000a
0002ffd90014ffe0
ffecffe20026fffa
000effd20024ffc8
0024fffcfff0fff4
000afff1ffc4ffff
ffe2ffdb0010fffd
0013ffd6fffa001a
0026ffdb0019ffe3
00320011fffeffdd
ffd3002e001fffee
ffda000fffef0000
000d000f0027ffd8
000e00320024000c
00060019002ffffd
fff500000027ffd1
ffe0001a0001ffe6
000f0011ffd80021
ffe1fff500130029
0021fff500110024
000efffbfffe0033
ffd8fffeffef0010
0002ffee000efff1
ffe9ffe4001fffe4
fff8ffe2fff3fff6
0020000000060025
0007ffe8fff9ffe3
ffe6001000230035
0016fff9ffe20017
fff50009fff7fff8
002f0003ffe00019
ffe4ffdd0012ffdd
fff5ffd80022ffe9
001b00110027ffe5
ffff00090010000d
ffd60029fff9ffe4
000c000200000017
001dffd30028ffec
0027ffd1000c0018
002100240014ffe4
ffee0023ffd2ffe8
00130011fff6fff4
ffe4fff2001f0019
ffeeffdc0010002b
000d00200001001d
002afffc0004ffee
00030000ffdfffd7
001dffdefffe003b
fff5ffd0ffc9ffe5
ffe8ffedfff9ffdc
ffe8fff2fffa000a
fffd000b0021ffed
ffe9000f00280000
0029ffe5ffc50012
fff7fff000070000
ffe40026ffbe0019
ffe600070002fff0
00190016002d000c
00030003ffe0000d
00040002fffa0008
fff6fffbffdafff7
001fffed0002ffc4
ffe7ffc8fff10027
00160020fffaffd3
0030fffbffff000c
0014000dffeefffd
002a001cfffaffd5
002c000a0037003e
0047000300190000
001500310001fff6
0031fff7fff80017
ffe5fffd0016ffd0
002dffd50047ffec
0041ffe0ffe30019
0027ffe800140005
ffe1ffe700210019
0004ffee000cffeb
000efffb0016fff2
0000ffe2fffbffdc
fffaffc8ffe8ffea
001dfff7ffde0026
000affe3ffdf0029
ffe3ffddfffc000d
0000ffa6fff8ffdb
0011000dffd5000f
000e004affb90052
000cffd3ffdaffd2
0027002a0012000b
0038ffd3ffceffe7
fffd0004fff9fffd
fff8001f0003ffef
fffb0005fffd000b
ffed0007001afffb
0028ffe90049fff0
0038fff00018ffda
001400050020ffbc
ffeaffd9001c0052
00400023fff9ffce
ffd9ffc3fff2ffcc
0024fffaffdcff91
ff9500610035003d
00110043fff20035
ffea0037ffcaffd2
ff900026fff20030
ffc20024fff50005
ffb7fff6fffa0002
fff7ffe80014ffd2
001fffd900350002
00070009000d0006
ffe3000dffe4fff2
0031000bffcf0016
001efff5fffdffc1
001c0014000e0000
fffbffeb0000ffde
0025fff6ffe3ffe6
0013000effe6000f
0008ffe9ffd8ffd6
ffe70017001e0033
fff5ffd6ffd7fff8
ffedffebffe60003
00010025fff10017
001600250002000c
000ffffaffdf0014
ffe6ffed0006fff1
0022ffee0019ffef
ffe0fff0ffee000d
00180018fff7ffdd
001b00090029ffdf
0029001f001fffe4
00200021002effde
fffcfff5fff4002b
ffda0024ffe1fffb
ffd8fffeffe9ffdc
0019ffe4003f0022
002bfffb0012ffee
ffdd002700240007
001c00240014ffdb
fff5ffe1000ffffa
00250005000f0005
000e0016fffefff2
0006ffecffeffff3
00070008ffcafffa
ffdfffff0009fffc
fffcffe90006fff7
fff50017fff4ffdc
ffda0041ffd8003c
ffdd0021fff6fffd
000e0012fffbffc5
000b0022fffbfffc
001400120024ffee
ffa6003900010003
ffd9000a001b0025
ffe5ffdf0018ffea
000effebfff1ffef
0008001900110014
ffdb001dffecffe0
ffddffd3fff4001c
ffee00250021ffeb
ffdbfff1fff3ffd7
fffcffd6fff0001d
ffc20030ffe00047
ffd2ffe700040006
ffe9fff900230019
0004ffceffcf0006
ffec0006ffd90011
ffd10019ffc5003b
0016ffe1000effe9
00220005ffe60001
fffeffe000020031
ffddfff7ffff0025
fff7fffb0022ffcf
ffec000a0039ffe7
fffefff1ffe7ffdf
ffe5002000300004
00030036001dfffd
ffe6fff00000ffcd
fff2fff000170003
00080012ffe6ffdb
001affd70013ffef
0027001afff5ffd5
fff0004f001d0014
00180009ffffffe4
ffe0ffd6ffd4ffe5
0015fff700100012
fff50037ffed0004
fffaffe300080006
0001ffccffd0fff6
fff5ffdbffec001f
fff3ffdeffddffdc
fff0fff40026fffa
002dfffcffe20045
fffefffe00250014
fff3ffd6000b0017
0003ffea00190012
0020000efff6ffe5
fff3000100250000
ffedffd9ffdf0023
0003ffd8ffdcffd9
0017ffd6fff00031
fff7fff50003fffc
000c001d002dfffc
0001002d00020015
00220007ffd6ffc7
ffe7002900170029
0003003ffffefffd
ffea0005ffee0007
0004fff8001b0024
001cffc7000affd2
001f0023fffdffeb
ffdc000300090011
0009ffe70035ffc4
ffe0ffc700130008
002000040023ffe7
0022ffe1ffc3fff5
ffecffe7fff20006
0006fffcfff8002f
001e0020001e002b
001a0018fff5fff8
ffdeffdaffff0017
fff6ffebffe9ffe0
ffe0fff4ffdb0016
0011ffdbffdd0040
0022fff7fff9ffd1
000cffdaffb8ffe6
ffe7ffc70010fffa
ffe1001effb6002c
0006ffda000f001c
001affed00060000
0010ffff00220030
0014002f0015ffce
0011fff60023fff5
0020002e006bffdd
0009ffcf00160009
002b000800380004
000f0012ffeefffc
002efff7002effb3
ffdc000d0040fff7
0020fffeffdefff1
000a000b0038000a
002bfff60023ffdf
000a000b003bffe3
fff700210033fff7
002affdbffdcffde
0002001ffff40001
0016ffcd0006ffd6
fff2ffec0020ffc4
ffde0020ffdf004c
0004fffdffce0001
ffd1fff60001000a
fff3ffed001a0018
ffc30055ffbfffee
00040007ffe20003
00150013fff80014
0012ffbfffdafff1
0012000bffbb0031
0024fff6ffc20005
fff7003b0026ffd2
001bfff0ffd3ffeb
000c00180016ffff
ffcc003a002d001c
ffcdfffc0003ffd2
0020002b002fffdc
ffe9ffe6ffc80017
0025006a00260009
003600200012ffec
ffa3ffed007fffa4
ffd500240020003b
fffa000bffecffeb
ffc1fffa00360003
0034ffd3ffe0ffcf
ffb5002c001efffc
0021002cfff20024
001b0005000c0006
ffbcfffa00140008
ffc0002a00090045
ffcc000bffe4fffd
00260042fff2ffac
fff6ffc000450021
fff9fff7001b0040
ffce003d0023007e
0078ffc4ffddfff0
ffe7ffb2004affc1
0027ffea0059fff5
0065ffaa002b0016
001d002a0041ffc6
00370030001effcc
000300150002ffc6
001600050014002c
000800190001ffe2
0018fffe00280023
0006ffe7ffcffff8
ffe000040026ffc6
001dffc2fff20031
00540019000dffe5
ffe70014001affe9
00050017ffdf0004
ffceffdfffe7000e
000dffeb001b0032
0005fff1fff8fff8
0018ffd400270023
ffef001cfffd002b
00190006ffd2ffed
fff70008000f0018
fff5002dffeeffd8
0026ffd5000d0017
fffbffd4ffe0ffd7
000bffedffc60004
001c0010003a001c
fff4fff5ffeaffc3
ffd900320027fff9
fff5ffe2ffd20010
000c0006fff10007
fff100210034000d
001affef00350029
ffe400200004001b
001affec0020ffeb
00360038000effec
ffdcfff2fff80003
0017004dfff3ffd3
ffefffdbffe90018
001dffc1ffe4fff3
ffc2ffbdffb10040
001a0053ffdcffff
ffbb0019ffdaffe8
fff7fffeffefffc9
ff90005b000f0065
fffd0000ffa20015
000400180011ffec
ffc1ffda0002ffe2
fff2ffe700170021
ffc9001dfff20035
0002fff5ffdcffe5
ffd6001b00110030
ffd50015fff0ffda
ffd6000d0012ffd1
ffe7fffefff80002
0015ffcaffe80021
ffe80029000c000a
ffd90000fff1ffcf
ffedffd1ffe9001b
001d000000000036
ffdd0003ffd6001a
0019002d0000001b
ffdbffdfffcbffe7
ffe0ffc3ffd1fff0
fff8000dffd30035
001b0010001b000b
0003ffe8ffd1001d
fff3ffe200070007
0025000a0016ffcd
000100190026fff3
fff1ffd4ffdaffec
fff0ffeeffe1fff5
ffe8ffde000dfffa
0003fff00013000f
ffe1ffea001e000d
fff8ffcc002affeb
ffec0008ffec0012
0012fff9fff50015
003fffe9ffc8ffd2
ffeffff4001cfff7
ffec00090030fffb
0002001affd6fff6
0019ffdbfffa0022
0028001effe10016
000efffa002d0003
ffeeffdcfffdffde
ffd2fffc0018ffe9
ffe9ffe1fff30008
ffd90005ffd80005
0014ffe00011000d
fff00009002cffca
ffef0009000a002d
ffee001afffefff9
0013ffef0016ffe8
0026ffd1fff0ffe8
fff9ffcdffdcffdb
ffda0037ffe70004
000d000a00150008
fff3001affc7ffc4
00110020002f0032
ffffffd0ffce0025
fffe0029ffdb000d
ffeefff0000bffd9
0002ffdbffdfffd1
ffe8ffddfff9002a
ffe0ffe10026ffee
00130005ffedfff7
fff4ffd9ffe7001f
0024000dffd60001
001dfff000020008
0023ffe50029fff5
fffeffe50007002b
0005ffbd00300022
0017000cffcf0025
0020fff1ffdeffef
fff5ffd1ffca000f
001300230015ffee
0009ffaafff00025
00230010fff70023
fff30012ffda0044
ffe5ffbc0002ffdc
0022001600020032
0002ffebffc2ffeb
ffd8ffc6fff60020
003e000bffc9fffe
001dffea00090014
00210012fff80021
0022000a001affd3
0003ffdaffd2ffc0
ffcf0016ffe70006
0009ffe1ffd9fff1
fff1fff20015fff8
fff9fffdffe9ffdc
0027fff1ffdeffc2
0009000b000d001f
fff7fffdffd9ffe2
00140023ffe40026
0023000a0001ffed
000cffe9ffda0004
0031ffebffe5ffef
0002002100060010
0010000e00210025
fffb0018ffe6001c
0011ffefffe7fffb
0013fffafffd003b
0010ffe10001ffc6
ffe6fff3000f003c
0021ffd1ffd90005
00220006ffe7fff6
fff4ffecffdc0005
ffeafff8ffe8ffe9
0006fffafff4001b
ffe70031fff7000d
000e001e00240020
fff8ffdf001f0009
ffd70009001dffda
ffe4ffe9fffa0022
0011ffd50038ffef
001cfff3ffdeffe5
ffdafff600240000
ffdeffd5001bffe7
fffb00280007001a
001e00110003ffde
ffe1fff1000cfffd
000c000a00010021
ffe6ffed0004fff7
ffdcfffcfff00028
fffcffe40008000c
00180010ffe2fff2
ffe900180006ffdc
ffdb00040014000b
ffe2ffe3001c002e
001affc4000dffec
00250013fff40010
0021ffffffd20005
fffafffe001d001f
fffffffb001f0021
ffe8ffdfffd5ffda
000fffe4ffebffcb
ffe6001e00120027
000c0016ffd60016
ffe60003fff60016
fff2fff3ffe70002
fffeffebffd00041
000afff00017ffef
ffef0012002a0031
ffe1fff60012fff3
001a00100019ffd0
001fffcffff8ffe8
ffeb00190038ffe4
000c0000ffba003b
00030025ffd60002
ffd30014ffdcffc7
fff7000affcdffe8
ffa8fffcfff3001c
0016ffd500190018
000bffecffe00034
0012ffd40005ffda
001bffd5ffbc001c
fff20012ffc50032
0002ffe9000dffe7
ffea0023fffffff1
ffe4fff8001c0008
ffd1000f000a0026
0025ffea001bffe3
fff4fffdffefffef
0018001afff20037
001d005000090029
0027002bfff4000b
0010fff90024fffa
0015ffeb00310022
ffdbfff8ffdb0017
ffd5001100520007
0025ffe9ffe7ffc8
0006fff80045ffe6
fffcfffbffca001c
ffed0029ffe7ffd0
ffe60037ffda000c
ffc40019fffe0029
ffd4000300040017
0033ffe8ffe4ffb2
fff1002000440048
0018000fffeb002d
fff3002d000b0051
005fffb7ffab0020
ffe1ffbb001affb2
002fffca00200000
0074ffe1ffee0014
0042003600090019
0069ffe5ffecffac
0007fffaffe4fffa
ffe30031ffeb000f
ffc7001900220044
0003001affe6ffee
001800210053002e
0027000efff70031
ffce0021fff00017
ffcf002f0035001b
00210037ffe00010
ffeffff80001001f
ffe0ffebfff4ffe9
0011000bffcf0002
ffe400230025001a
0024fff5001cffc6
0029000e0016fff6
ffea0001ffdcffea
0002001fffe9000b
0007ffe00033003d
00190038fff40017
ffef0019ffff0017
ffd9ffdcffde0004
0006001b0000fff4
0008ffc3ffe4ffe1
0007ffe3fff0000c
0012001affcf0035
fff6ffd0fff50024
0017001dffed0027
0010ffefffacffc9
0015ffd7fffffffd
00230023ffd60036
ffccffcb0002fff9
ffeafffbffd80037
0002ffb2ffd8000c
001dffcafff2ffed
ffe80044fffb003c
fffe000a0013ffe1
000cffedfff70031
003fffcaffcf0017
0020ffe2ffd1fff5
0014ffeb0019fff3
fff100120039ffff
fff3fff50015ffed
ffdf003fffe1fff3
ffc1ffbeffd10031
004fffc0fff1ffb9
0000000dffff0025
0012ffe90011fffe
0011ffd8ffee0026
0033ffde000bfff7
fffb00070004ffe1
ffd1001b001a004e
ffd8ffeafffaffff
ffd20001000dffff
001fffecffe6000c
ffbd001cffe60015
ffe4000dfffa0018
fff0001b0003ffff
0011000c0000ffe3
0024ffe4ffd9ffd8
ffda0017ffbf0021
0016001c0057ffd0
001affcfffe0ffee
fff5ffe7000d000a
002600330010ffde
ffdeffe0ffe4ffda
ffd700070036fff9
ffe9ffdcffef001e
003b001d00260039
0015fff10009ffc9
fff5ffe40042ffbc
0019ffe1fff8fffd
0017000effe1ffff
001a0012000d0003
00450006ffcdffcd
ffeafffeffe7ffe3
ffeb001c001e000d
001cffd50002ffd8
ffe70015ffbf001b
0010ffdf0029002b
fff60009ffce003c
000f000bfff1ffe3
ffdcffcd00090024
fff4ffed00070027
ffe70039003a005a
0031ffa7ffd6ffcd
ffe2ffe40017ff9d
0016ffae00350012
0076ffcd001affe5
0016000c00510004
003300100022ffb9
001cfffd002b0006
fffdfff5ffef000e
000800020006ffa0
ffccfff5001b002c
0011ffdbffb8ffc9
000a002900120006
001effbb002cfff8
0016002dffedffca
000ffffb00160014
ffff0007ffb5ffd4
ffdcffd6ffddffeb
002affe6ffdf0019
00270001fff1ffc7
fff6ffdfffc5fff2
fff6fff0ffc70049
00350024ffcc0011
ffd600330008ffe7
ffdd0022fff9ffff
ffdbfff1002bffdb
ffdafff0001bffc8
fffb003effd6fff0
ffdbffebffde0008
fffc003600120005
0001ffe3ffed0019
fff3fffaffdbfffe
ffff00040011ffdb
0010000300200025
00250032002a002a
00070009fff10002
000c0003003bffed
000b0059fff80031
ffe40018001cffdb
000d006c0034ffdd
ffba0022003c002d
fffdfff9ffe1ffa3
00250006ffc9003c
ffc800380003ffde
ffd60012fff20008
ffeb0008fffe0012
ffd3ffcd00140021
000effcbffc4ffda
0006fff600340012
0013ffcaffe0000b
0003001300220020
fff30016ffc5000c
001afff9ffe20033
000b000afff1fff1
0010ffe9ffe9ffd2
ffd50003fff3fff6
ffdeffe1ffe6ffed
000f000cffca0038
ffdc00200005fffa
000b00050016000d
ffeefff5ffe70006
ffe00013ffc8ffe7
fff90022fffcffe0
0018ffefffea0009
0006fffc00370019
ffe7ffe2ffc80019
0040fffcffea0007
fff7ffea001ffff5
00200030ffedfff3
ffff001600190030
000c001e001effed
fffd0012003cffc5
000cfff0fff70020
ffd3fffb000a001b
fff0001e003b0018
0008fff80009ffff
ffe6ffee00420015
00060015001affd2
ffd10020ffcb002d
001e001d00350004
002affd0fffc0006
0034ffe2fff9ffe0
ffd800000035ffcd
0005fff5002c0016
0005ffe3000b0011
fff7ffff000e0015
ffe6ffe5000affdf
00010029ffc5ffc6
ffcb000600060014
000c003efff60024
ffcd003100260051
0017ffcdffce001e
0030ffaa0031ffde
0039ffff001a0049
0051ffdafff9001f
0025ffbdffe3ffe2
0028fff8ffe3ffc2
0004000d0029001b
003bffe30030ffc8
0000ffd5fff10036
ffd6ffc6ffec0026
ffb7001f0005000c
002a00110016ffe2
0024002d003a002b
ffe3ffb700060022
fff3ffb20021fffe
fff6005cfff30000
003dffee0010fffd
0058003700410005
0006ffd9ffd7ffdd
001ffff3fff60013
ffc0fff0fff8ffe9
ffdeffeb000bffcc
000affeb0024fff1
00030017ffc7000c
fff7ffedfff10011
002cffb2fff50001
0019001700210027
001a002e0036001c
ffd5ffd7ffbeffc2
ffd6ffde002bffd1
ffe50011ffea000d
ffdbfffb000affe2
ffdaffda00240033
fff3ffebffe7ffe3
fffb00270017001d
0015ffe00016001a
ffe4002affe9000d
0035fffafff80014
ffd900100011000e
002bffe9000dffdc
ffd50002000fffef
0005002f000d0033
ffe1fff7ffd80004
ffeb00310013ffe5
fff20027ffe9002c
0019000e002a002d
ffdfffccfff40004
0009001bffd8001a
fff20028ffdcfff5
fff4fff0ffee0004
fff0001f00200019
000500290006fffe
0033ffff002e0018
0019001300390010
fff4fff7ffcbffff
fff9001bffda001a
0007fffffff2ffeb
0041003d0013fff5
000e0005001d0011
0027000affdc0008
ffefffe70027000e
fffafff7ffc90012
ffd50024fff50037
0015ffbcffecffcb
ffd4000e0038ffec
0029ffd30016ffdf
fff1ffbcffcd0000
fff0ffdd0020003c
ffe2ffd6000d002a
0029004b003d0026
0016ffd500280023
ffe9ffe500000038
0006ffdfffdbffd0
ffdb002c004fffca
fffb003b001b0029
fff4fffc00100004
ffb70008ffe8ffcd
ffbcffa3ffe10019
ffcd0030fff0fff0
ffcf0009ffdfffb5
ffc8002700080008
ffe4fffa000ffff7
ffdcffe6ffefffcb
fff8fff9ffe2ffec
ffb50048ffe9001e
0011ffe5ffd50028
0012ffeafff9ffec
004a0040ffdc002f
0037ffe0ffd6ffe2
fff0004b0037ffc3
00230044002f002f
001e0012ffec001f
ffc4ffc2fff90013
ffe7ffcbfffd0007
003d00440020ffe4
0050001400250006
ffe2fff5003b003b
001d0038ffc3ffe6
000d000e0015ffc1
0017ffecffb9ffe2
ffceffffffd3001a
00360041ffc90005
ffdaffddffe90018
fff6000900400011
0020ffe6fff30001
ffe5fff30015ffff
ffd9ffce0017001f
ffdb003000320026
0031ffecffe00011
fff9002b001cffca
0009ffef0004003b
ffdf002700110027
ffd80021001dffe9
0030ffbc00040029
0014ffcf0000ffe3
0017ffd4ffecffc9
0007ffe4000bffed
0010001affc1002c
ffe5000f0014fffd
ffc60023000dffda
002a00140043ffdb
fffaffd2ffe6002e
0020fffb003cffe6
ffe50008ffdb0002
002200450005002e
0023ffca0034003c
0033002600160014
002e003b0040fff7
fff4fff8ffc9ffed
ffd70013fffeffee
ffc2ffcf0002ffe7
fffb001f0023ffe4
0052ffdaffd70015
fff6ffe300240008
ffe7ffb7fff0ffd8
ffc900190014ffda
ffec000affbafffb
ffebffd1003bfff9
ffd6fff8ffdaffda
ffe7ffc0ffc6ffbd
00070032001dffdb
ffef002700230017
000d000e0033001e
0013000000160015
ff95ffee000afffb
0015ffd1ffa50031
0050004000140023
00420020ffb3003c
0012ffecfffe0028
fff300200021ffb6
0003ffff001ffff1
ffe0fff3ffebfff0
ffd0000bffd4ffce
0018ffdcfffcffdf
ffcbffef001e0004
ffedffd6ffecffd7
ffec0024fff1000b
0000ffbcffbdfff8
0031fff2ffd40000
003d003affd3003c
fff7fff7ffc60020
fff7003ffff2ffb1
00300017ffdd000f
fff6000d002c0051
ffc1ffe20021ffc0
003a0024002bffdf
00000037001c0002
002dffe9ffc7001a
0026ffc400260020
001900100014ffd4
ffe4001cffd80010
fff1ffca0044ffd6
ffb3ffddffbeffb6
ffd70009ffe5ffe4
0041fff90016ffee
fffcffde0005ffdc
fff50009ffd8000c
0012ffd0ffc4000f
fff3001b0002ffd0
ffe1000f003a0005
ffff003500230009
ffd6fffe000bffe8
ffddffd100010006
00090024ffc70002
001fffe3ffe70021
000400020014ffd9
ffdc0000ffddffcd
ffc200040018fffb
002f0009001d0004
0007ffea0010fff2
002d0002ffdaffe3
0012000500280004
ffe6002ffff8002c
ffff0024fff3ffff
0008001cfff2ffe6
001dffcbfff80037
ffd5001dffed002a
fffc0022ffe8ffdf
ffd80012ffd3fffa
ffd00035002b004e
00470028ffe7ffd3
ffe6ffeb00020006
fffc0016ffd5ffdc
001d00050000002a
005cffc9ffde0010
00190061001bffc9
ffdffff5ffe5ffc8
ffe3ffeb004d0019
ffd2ffc700120029
000effeaffe2002e
0032fff9fff70000
003900260040ffe5
000b001cffeffffb
0003ffd9ffd1fff4
ffd9000cfff2fffd
000effdd0034ffcb
00210015fffc002c
ffebffbbfffe0033
0016ffdd002d001d
ffc10048fffd0035
002c000ffffd0013
00140020003efff2
001e0040000f0014
00340017002efffd
fff5fff5000dffce
ffecffc1fff6ffca
fffdffd70031ffc8
0032ffd70039ffc4
000a0000001c0021
ffecffacffe00010
ffdeffbbffdcffe5
00340003ffc00010
fffc001fffd1ffd9
00240019ffeaffc4
ffce0010ffd10021
0006ffa8ffaefff0
ff80ffe2000bfffd
004a005b0019001e
00590069002f0044
003afffefffc0046
ffbfffd8fff9ffe8
00590026ffb1ffc6
003000490021ffeb
004eff81ffbeffb5
ffa40035ffe9fff8
ffdb001affa8ffd9
ffea000affbc0035
00130000ffceffe0
ffb5fffd0049002b
002700450043003a
006dffff001e0016
ffffffbf00110063
ffa2000900200010
fffc0023ffdeffbe
fffc003d0008002d
0038ff93ffe70013
ffb80038003c0007
fff5ffe3ffce003c
ffef000e004b000a
001dfff8ffd80001
002effccffdbffd3
ffedffadffd0000e
000affee0028ffbc
002c0027ffee0007
0013001a00070048
ffd3ffbeffd40013
00170023ffd2ffda
fffa00370015ffd3
00150014fffefffb
00460037ffdaffe0
ffebfffefff2003c
000cffcfffc3002b
ffc0ffe1003dfff4
0038003afffe0007
0026003d0027fff2
0017ffd2ffb70030
ffbb0018ffd0ffca
00430018fff1ffce
0013004700190017
0050fff900030011
ffe2002b0028ffd4
ffbd002dffb9ffe8
ffddfffbffd8fff0
00090001ffde0024
0022fff700250043
00020019002b002f
002d0029ffe5001a
ffeafffeffdd004c
ffdcfffa001afff4
ffed00430039ffce
ffcbfffcfff10000
000effdaffe0fff6
0022fff600260013
ffcaffdbffd90047
000ffff5000effe6
ffedffd8000dffff
fffefffbfffe0009
0022ffeafff7ffdf
ffebfff2ffdffff0
fff1001000100020
fff500000007000e
000effdcfff6fff5
00000020ffe0fff2
ffe700090002ffd2
ffc3ffed00140015
000cffe3001affe3
ffefffdcffe5ffbe
0005ffe900270019
ffe50018000a002c
fff5fff1001effea
0011ffe3ffe60037
001cfffeffdc001f
fff9000b000f0005
fff7fff600130008
ffedfffa001a0009
fff00009002c0006
00240001000e000c
fffefffd001c000c
fffcffe0ffeb0020
fff5fffbffc1ffcd
fffa001300370013
fff3001affc9000c
ff9d000b00420014
ffd3ffbe0025ffc7
fff7ffdffffc001d
ffcaffdeffeefff9
ffde003800140034
0003ffe5fff3000d
ffa9000a002c0041
ffceffcb0010ffaf
0020ffeaffe30002
ffcafff6002a0002
0020ffe5000efff7
000dffefffdcffd3
ffe0ffe40009ffeb
00320017fffd0010
fff0000fffcf001d
fffbfffdfff1000b
ffe700090039001c
0016002affc8ffbf
0013fff7ffeaffed
001effd7fffd0021
001cfff3fff10021
fffa0047ffdaffe3
000c001000360000
fff50007ffc4000d
ff94fff50006ffe9
0000ffd60002ffb6
001affea000bffd2
ffb9ffdf002b0000
ffe8001400140005
fff1ffe9fffeffed
ffdafff7fffe0015
fff9ffd90002ffed
001bfff0ffe40022
fff6fffd0014fff3
ffeffff6ffed001c
ffddfffefff9ffe5
ffcffffa00220003
0002fff70018fff0
0003001effe4ffd7
fff4ffe90009ffff
fff200000006fff1
00040013001bfff0
002afffeffdb0013
001d00060011fff1
000e000cffe80003
0005ffecffddffea
ffe7001a0000000d
ffff0014ffddfffc
ffc7000b003f000b
ffc4ffde0012ffe7
0004ffe1ffe2001c
00030008ffe3ffd0
0010fffd0019ffec
001c002dffe0000f
ffb4002a003effca
ffcbffc90038ffce
fffffffcfffb001a
fffc0001fff7fff0
001afffc00040005
00160005fff2ffd4
ffe8ffd5000c0019
0016fff1fff20020
0008000500040015
ffd6ffe50038fff4
ffdc000b00170030
ffe80012ffd7ffd5
ffaeffecfffbfff6
000cffedffd2000b
0020001c000a0000
0006ffe300050028
ffdafffa0002000c
fff000020026fff3
001c000dfff3ffef
001efff3fff20027
000300160020ffff
fffb001a0008ffee
003cffe50003ffec
002b0003ffe50018
0032ffefffeeffdc
000d0029fff3002b
000d0014ffed0001
000d0010ffdfffe2
ffe4fff5fff3fff9
ffe600000008fff4
ffd0fff5fff10013
0002ffe9fffbfffc
001c00010002ffe7
ffebfffefff4ffe9
0014ffeaffebfff2
fff4000d0015ffec
00260014ffde0001
fff4002b00040013
fffefff2000cffe3
001b0011ffec0010
0005fff20003ffeb
000affffffebffea
0022ffe3fff70016
001b001b0003000b
0005fff00012ffca
002e00030014fff9
ffe5fff6ffeffff2
ffffffe70032ffe6
003f000affd2fffe
00280009ffec002f
fff9000900090001
fffbfff1fff2fff7
ffe70010ffec0004
ffeaffef0009000f
ffe300210007001d
fffeffe5fff8ffe3
fff8ffea0004fffa
0023fff7fff8fffa
ffe4ffea000bffe3
0003000f000affff
fff6000e0014fff8
001300010017fff5
000ffff5fff7002a
00070006ffefffe4
ffe1000cfff20000
0015fffefffe0000
ffcf000efff0000a
0009ffd30012fff7
ffffffe0fff4000f
fffe001effefffe0
0018fff000180001
000afff5ffe7001f
fff40006000ffff0
ffedffe900200002
fff8fff80014001a
0009fffdfff10007
fffffffc000f000c
001200210010fff0
ffed0023001efffe
ffe70002001afff1
001affff001b0010
ffed00020003fffb
0019fffafff0ffea
fff5ffeffffd0017
ffe9ffe5fffefffb
ffe5fff7ffff000e
fffdffeb00170000
0009000e000affee
ffe70012ffe70003
fff8000afff5ffe2
0006ffecfffffff3
000dffeb001d0018
ffecfff9000a000f
0023000afffc0027
0019ffe5000b0013
0007ffef0027ffec
0032000bfff3000c
001a00000011000e
fff6fffbffed0015
fffeffeaffdbffee
001500150010fffe
fffa000ffff1fff9
ffee00240009fff0
ffe7fffa001affff
0010fffc00080002
0007fffb00090007
00100000fffaffe5
ffeffff500030006
0022000affee0003
fff9ffebfff30007
ffff0005fffc000d
ffeaffeafff0001f
0016ffe6fff8ffff
fff000140018fff2
0007fff2000affec
fff6fffafffe0012
001affec00010017
0001000dfff20001
ffef00190006fffe
00020013ffea0013
ffeb002000210005
fff2ffdd000bffd1
fff3ffe7fffb000e
0014fffffff8001b
000d0006fffa0013
ffe0fffcfffa000a
0003001bfffaffed
fffaffe3fffdffdf
0009fffa0018fff7
00160012ffecffe8
00030009fff3fff6
00130013fffe001e
0004fff300040005
ffeffffe001bffdb
ffe7ffef001c0031
fff80012ffd4fff5
ffd7002c000efff0
fffe0026fffd0020
ffc900080012000b
ffe4ffc60012ffda
fffe000a001e0034
000bfff8fff9fff5
ffd30011fff1ffe8
00010018fff90028
fff9002300230019
ffdffff20033ffd6
fff2fffe000e000a
003800060008fff6
ffff0015ffecfff1
ffedfff0fff40000
0025000bfffb000e
ffef00090024fff2
fffa0008ffeffffc
fffaffe70002fff5
fffa0007ffdafff4
fffdfff7ffedffed
0005001ffff40010
ffecfffbffe6ffe9
0005000cffe70022
001afff5ffee0013
ffd4fffffff9fff1
fff6fff5fffdffde
fff1001affee001c
0017fff700170010
fff2fff9ffdf0008
0014ffdbfff5fff4
ffe1000100080000
00070009000dffed
fff0fffd0015003c
0005ffddffebffe9
000cfffd00090001
0006000f0006ffef
000b000e000affe9
ffe5fff6fff8fff2
00340016ffd8000b
0003001900030015
0001fff6fff60008
0002ffeeffdb0006
000effe40003ffe8
000f00140012fff0
0005000efff40018
00050015001b0002
001afffeffcc0002
0001000dfffcffd9
ffedfff9fff7fff8
fffa001afff6000e
ffeaffefffe7fffa
0024fffc0009fffc
00080005ffd2ffff
fffb0003fffe000b
fff10002ffe3000b
0003ffe3fffbffdb
ffda000100120017
0003ffff001b000c
ffe40010ffe5fffc
001cfff200130015
ffe0ffe6fffbfff9
fff8fff60022ffe8
0023ffebfffe0011
00220027ffd8003d
ffe9000effe6ffec
fffafff1fffcfff5
000500090000ffe3
fff6fffb00020010
0026ffe5ffecfff4
fffd0023ffdf0027
00100005ffe70002
0010ffe10028001d
00040012ffeefffe
001effe600190000
000cfffcfff00016
fffb000700110015
ffe5ffecffe7002a
fffaffdfffe0ffd4
ffe7001f0018000f
0012001400070015
ffd5001c0024fff6
0011ffe40021ffcb
000dffe9fff3ffe7
0005fff4ffffffe7
ffeefffe00100009
00070009001ffffc
fff9000700050012
ffe9ffe10012ffd9
0027001afff70019
ffe9fff7fffefffc
001900110025fffa
0005000effd1000c
ffe70006001afff9
ffe0ffcefffe0015
0014000fffd90033
001e0001ffeeffdd
fff3000200240012
000e002effd4fff2
ffd1001e001afffc
0009ffe8fff4ffeb
ffeeffeb0005ffee
00210031ffeafff9
002d00070009fff1
fff90003ffe40027
000c0019fffdffe5
00120001fff80015
ffefffebfff9fff2
000effde000afff2
fff200240005fff7
0007000500120008
0010000f00140004
000ffff80008000b
000f0015001cffea
0005fffbfff0fffd
0001fffcffe7ffea
fff8ffe100250005
fffdffe30010000b
fff2ffef00130022
0013fff7000b0019
0009000b000efff9
0010ffe2000fffe5
fffc0016ffee0007
ffeeffe7001afff4
fffbfff10008fff0
ffec00050016ffee
00060017fff30016
fffe00150000ffee
ffecfffcfff0000d
fff6ffeffff8000f
fff3ffddffff0004
001c0004ffe3003d
ffebfffeffd6ffff
fff100390007000e
ffdd0010ffdafff5
ffcdfff9003efffa
ffddffdc001fffce
001f0001ffe80006
000bffdefff0fff4
fff2fff300030005
00110005fff1ffed
ffdaffdeffeb001d
000fffdf000dffe2
0014fff8fff6ffd6
0010ffe0002a0010
ffe60010ffcd0025
ffffffd80005ffe6
0009000dffe40027
0018fffc00090014
0019fff50003ffd3
001b001fffe90003
fffdffd1ffdbffd7
002cffedffe9ffee
0040ffe3ffe0fffc
fffd000e000f0040
001f0010fff70026
00050018ffecffdd
fffeffee0018000a
fffe0027ffd60001
ffcc0018001effda
0011fff5fff1fffe
0018fffdfffbfffa
ffea0007001ffff3
ffef00040010001d
ffff0014ffb0ffe0
ffceffc70010fff4
0027ffe5ffdf001a
fff4fff6ffe9ffc3
fff9ffe100520007
ffe7ffdb001a0007
fff6ffddfff3ffb6
0035ffcaffc60022
00130018ffcb0050
ffdffff1fff3ffef
001fffde00030002
ffda00050008000a
fffcfffb0016fff7
ffeafffcfff8000c
000cfffcfffd0017
fffb000afff3ffc3
fff2ffdc00030013
000effd2000e0001
0022ffdc0008fff6
0012ffbe00020000
00150006ffbb0024
0002000f0000ffba
ffeeffed0022001b
ffe6ffff0012fffd
fffcfff9fffeffcb
0003fff1ffde000a
00330011fff7fff5
00030001000a0012
fffbfffafffa0012
ffec0004ffec0007
ffeafff0000bffff
fff2fff60008002f
001afff0fff6ffff
ffee0006fff0ffe5
0023ffe6ffe70010
0022ffdb0018000d
0016ffed0012fffa
002c000dfff2ffef
0004002d000afffc
ffec000f0020ffe0
fff0fffa0001fffb
00260010fffbfff7
001a00190018001e
0010fff0fff7000e
ffda0005000fffe6
0019fff0000bffee
0014ffec0020001a
002e00070010fff3
ffed0003000d0007
00220019000cffd6
0004001cfffe0000
fff3001d0006ffd5
0007fffd0021fff5
0013000cffe7fff8
0015fff7ffeefff9
0017fff8fffdffff
0023fff8ffec0032
ffeb0010fff80002
ffec000cfffd000a
ffe6001e00060017
000f00140008fffa
ffe9ffe80017fff9
ffe6ffee00060008
fff1001bfff40000
001100180035ffee
000affecffd3001a
000bffdf001cfff8
00140008fff40012
00070004ffd50030
000f0000ffeeffd1
001f000c002c0014
fffcfffaffdb000b
001affee001ffff2
00150001ffd8fffb
fff40027ffe10015
fffafffe00030009
fff10024ffee0012
00120015ffdfffed
0004000bfffa0006
0026000afffcffe0
0014000cffff0002
001effe30016000e
ffdd002dfff8ffdc
00030010fff50002
fff6fffaffd4fffb
ffd1001c0038fffd
ffd0ffd20012ffe3
ffe80009ffed000a
ffe90016fffd000f
fff9000e001b000d
000d0017ffe40019
0017ffef0017ffe9
000d0014fffe001e
fffa000affe6000e
ffff000a00100012
ffea0003ffe60014
fffaffeb0016fff7
000ffff6fff10015
0014000e000bfff3
0000fff80000fff2
001cfffa00020000
000a0007fff9ffe0
0010ffed00090012
00140015ffed0015
001b000cffff0016
fff0000effe0fff3
fffbfff8fffeffe0
ffd6002700100003
000efffbffefffe1
ffc0ffddfff00028
0016ffeeffed0006
fff3000fffdffffd
0001000c001afffb
0002ffe8ffe60013
000bfff30001ffd9
0002ffedffd70026
00080014000c0024
fffd0000ffd80001
0006fff300050004
001cfffaffebfffa
000a0007ffe8001b
0006ffea00000023
00080010fffbffee
001affdbffe10009
00050003000bfffa
fff500290014001a
fff80015ffebffe7
ffb8ffe8000b002e
ffe3ffda0010ffe5
0002ffeeffd7002f
fff80021ffbfffd8
fff30017fff80001
fff6001dffe80007
ff960036001efff4
fffaffcc0033ffa2
0009000efffe0026
ffff0021ffd9fffa
000b0024fff3fff7
fff80018ffe90014
ffd50008ffecfff1
000fffe5ffffffd4
0007ffe9fff70012
ffe9000a0012000b
ffff0014001c001d
0012000dfff0fff7
fff8ffff0019fff5
0006ffdcfffb0013
001afff0ffea002b
0012ffe1ffdcffe9
ffcd0007000b0022
fffe00170007ffcd
fff10001000c0014
fff4ffd90016fff4
fffafff7ffebffc7
00020015fffbfff4
0009ffc7ffe0fffc
0012ffe500040015
00370003ffe8001d
0011000d000efffb
0021000600070015
fff2000c0001ffed
ffeafff4ffef0019
000b001dffffffe0
ffd4ffedfffc0007
00150001ffe7fff8
fff3ffee000f002f
ffeefff2ffbefff4
ffd4002e00240013
000c002affe6001d
ffab00140012001b
ffefffc10034ffba
ffeaffe6ffea0010
ffeefffb00050007
ffe9fff1ffe4fffa
ffebfff500200008
fff8000a00110023
00060005ffe40002
0012fff3ffe6fffb
ffebfff60022fff3
002500080012ffec
ffe1000ffffc000d
001a0002000fffdc
0025ffffffe20010
fffb0009ffd30014
0032ffe7ffeb0002
0011ffeffff2ffea
fff4000cffe8000e
0016ffe7ffeb000d
00160017fff80021
0011ffe1ffe60012
ffe8000affdfffdc
ffd0001e00160004
fff0000fffe20022
ffa0002100450022
ffd8ffc4002dffa2
ffdeffe3fffbffe8
001e000e000e000a
ffd8fff0fffeffeb
000cfff50012fff8
0000ffefffff000c
000d001bfff10010
ffe60023ffe5001a
002f0001000ffff6
ffe2000a00120009
ffe50022fff9ffee
000cfff8ffef0010
fff9fff50004001f
ffef0002ffef0016
003d0024ffe6fff5
fffaffed002cffeb
002b000bffc20015
002a000ffffeffef
00130011000c000a
ffe9ffedfffbfff3
ffea0001001a0016
0005fffa000d0003
00150003fff9fff1
0018ffef0010fff2
0011fff3001b000f
000a000d00170000
ffedfff4fff5fff4
00100005fffa000b
0013000600130017
fff8000affe5001c
00020000ffedffec
0014ffeeffebffd2
ffe4000300210012
001bffe2fff2fff1
0003ffe3ffe10016
002bffd8ffdb0017
00230012ffdb0018
0002ffe4ffe30014
0003fff8ffd2ffee
0015fff9fffa0009
ffee000d00110006
ffea0029001affe9
ffe1fff3fffaffe7
00020015fff30032
ffe50036ffc80001
00100001fff5fff2
001a0026ffd3003e
ffde003e0004ffff
ffcaffe50023ffc2
000bfff0ffff0016
0006000ffffcffe9
0019001700230019
fff2000dffd5001d
ffc800140004fff6
fff3ffc30005ffe1
ffde001efffdfff7
000cffeaffed0011
0008ffff0001ffe4
001600100010ffe8
0023001cfffafffc
0013002400010017
0013000ffff4fff1
0021000e00160005
0001fff4fff6fff0
0005000afffbfffe
002f0015ffd80004
000b00110000001e
00120004ffde000f
fff0001b0000ffeb
00150001ffedffeb
0004ffed0006fff3
0028fff1ffd9000e
fffdfff70007000b
0003000e000effe5
ffdbffe80024fffb
ffeb001800020025
0003fff8fff7fff5
fff4ffdf000a0012
ffe8ffddffd9ffe3
0000ffdf0005fff5
ffc900070027fffe
ffec00040020001e
00010017ffdf0002
ffbafff1000efffb
ffe0ffd9fff1ffe1
0010000afffb0029
fffdfffa00020007
fff10018000b001f
0002fff6ffdffffe
fff600000018fff9
0002fff00001fff9
fffbffe30002000d
fff1ffd8001ffffc
ffe8fffe0037ffff
fff2000effeaffed
ffd2000200140003
000bfff7fff6ffed
0009ffe500130028
ffd7000a0014000d
ffdb000800180012
fff80009000dffe2
ffd1ffe40028000a
0000ffe6ffe8ffdb
0012ffff0021fffb
ffe50011000e000d
0004ffe0fff4000d
ffeffff8000f000d
001effe60009000b
00100016ffeafffb
fffa00210002ffba
0003fff200270026
0020fff6ffeafff5
0022ffda00160006
0042fff7ffc5fffb
00120033ffe20041
0019000a00010020
fffc0015ffefffed
fffbfff60017fff9
00010006fffc000d
ffd9fff5000dffe6
ffe5000e00080003
001dffe50019003b
fff70005ffeaffe0
00020025001bffff
ffde002bffef0025
ffe4002b001effd4
ffeaffdbffffffc1
ffffffea0016fff3
fff2ffebffec001c
fffffff700090004
0010fffe0019fffd
0027000b0006ffe6
ffec000bfff5000b
0014ffedffe1002a
0001ffecfffbfffe
ffe7fffcfff70004
fff8fff2001e000d
ffff00290001fffc
fff9ffde0007ffea
ffe2fffcfff90010
00290021ffe30016
ffff0022000cffe3
fff60000fff40001
00240029000bfff4
fff5000900270007
00070011000affe9
0003fff200160009
fff20017fff5000e
0002ffe900050017
0000ffea0002001d
fff3fff4000ffff5
fff4fff6ffe1ffd3
002bfff800120001
0002fff8ffcd0008
0011fff0001cffdb
0067ffd9ffb8fffc
0040001fffdd0051
00100012ffe4ffe8
fffe0007fff7001c
0011fff0fffcffe0
ffe60007ffebffef
001a0002fffa000d
0018fffa00120006
fffcfffc00140013
fff0001dffebffe8
0011000cfff20002
0013000bfff1001c
ffd90010001b0018
ffc6ffc30007ffcf
fffbffd2fffa0015
ffd5fff20001ffed
ffca0037ffeb0028
fff4ffe50010fff9
ffa8ffe100240044
000fffe3ffe7ffea
fff4ffe00007fff5
0019ffdb000a0008
fffc0014ffffffff
fff1ffe8000effd5
00190007fffc0035
fff5ffdffff10012
ffe8fff70007ffed
fff0ffeb0035fff4
ffe6ffe5ffeffffa
ffecffe5000f0003
0008fff600050008
00270016fff90003
0002ffeafff4ffd1
0005ffea002e0022
001afff300100012
0012fff9fff50007
0036ffe3ffd40004
00000015ffea002c
fff30015ffeffffc
000afff100020007
001cfff20010ffe7
fffe000800120018
002bfffbffe50007
fff6000dfff10010
ffe6ffe80015ffe0
ffe5fff4fff4fff1
fff7fffcfff5fffc
001000100002fffa
ffe7ffe800050019
fff9ffe70009ffe6
001effe70002fff6
00130002fff3fff6
fffc001b0005ffef
000d000a00140005
ffeafff8fff7fffb
fff3ffe8000affe4
00070007fff6001c
000bfffaffe80015
fff20003fff8fff8
ffe3001400100013
fff90013001e0002
ffdcfff90006ffef
fff5fff8ffe4000c
0011ffd7001c0003
fffe0016000a0005
fff1ffedfff6fffa
0013000affeffffc
fff7fff00004fff6
fffbffebfff2ffee
fffeffeaffef000a
fffd0014fff40006
ffe30014fff30001
0016000c00010004
00010007fff20012
ffe1fff8ffe40020
0013000400040014
00040014000effe6
ffe6002000050013
0004000f000c000c
00070003fff8ffe5
fff9ffdffff4002a
ffd7ffe8fffcfffe
ffca0016fff90020
ffef00090019fffc
ffc5000c002dfff8
fffaffd1fff5ffbc
fff8fff8fffc002b
0003ffe8ffe80006
ffc2003e00210021
ffc7fffe00070004
ffab004100150011
ffe1ffaa0036ffb4
ffe60005ffff0046
fff40014ffefffe2
fff40023ffe8ffef
001100200016000d
fff4002dffff0011
ffe4ffc80038ffc9
0000fff1ffeafffa
0015000cffeb000b
0025ffe80028001e
fff7ffe6ffe3fffd
fff7002200000000
00110002fffdfff6
00010011ffd5fff6
000dfffd00100025
fff800120001ffef
ffe3fff1001cffe0
00160018ffe00018
0014fffcfffa0012
00190019ffcb000e
ffffffe8000c0019
0006ffce00040002
fffdffd50014ffeb
0003ffd8ffe60035
002b0011ffd80013
0007001affe6fff3
0000ffe6000d0030
0002ffe1fff6fff7
fff1ffe200310002
0057ffe3ffc4fffe
0015002bffe90019
fffe0012fff90020
0021ffe40001001a
000cfff3fffafffa
ffda00130006fff8
0012ffedffe5001e
00160018000a0006
fff0fffdffdaffd1
0004ffe3000e000d
0003ffc200050008
fff7ffdffff8000e
0045ffd1ffc1000a
003e0024000a0041
ffeb0012000effd8
ffeefff30021fffd
ffd60016ffdffffa
fff6ffe70005fff9
0004ffe8ffd1002d
fffc0016000efff9
fff0fff20013fff7
fff10006ffe5ffed
00070030000fffec
000efff200090014
fff2000c0008fff6
ffe8ffe7fff7ffd8
ffed000affe70010
fff7001e000dffe1
000300030014ffe6
00190011ffe90020
ffe6fffafffbffe9
0007ffe2000afff7
0001ffe7fffbffea
ffe8fffa00160009
ffeb0010ffed0007
000b0009001effe9
ffd3000e00050019
0005ffe6fff7ffd0
000effee001b0002
fff3fffeffed000d
0002fff5ffe3000e
fff80005001c000a
001200270010001d
ffdd0002001cfff8
fff8ffeaffee000f
ffff0016ffd6ffed
ffdf000afff4000d
0008001cffebffff
ffe000150009fff8
ffeeffd80014ffd1
ffdf000a0011ffe4
ffec000afffdffe3
ffd4002e0009ffff
ffecffe90001ffff
ffe90023ffe20022
fff1ffebffeeffe7
000c000400100025
fffd001bffe0000f
fffefff90013ffe4
fff10007000e0011
ffea00380004ffde
ffddfff40025ffd4
fff3ffebfff4000a
00280026ffe4ffea
0014fff8ffeaffee
fffdfff600050002
000900320001fffe
fff90015ffffffee
fff30006ffebffdf
0017fffb0022000f
fff2ffe000030017
ffedffebfff5ffea
000afffaffeaffed
002afff800070032
ffdf00140006001e
0025fffaffddfff6
ffcf0028fff4000d
fff500180011fff2
ffe10004fff4000b
0003fff8fff2ffd8
001000060022fff6
fffcfffd0004ffea
fffc0016fffffff8
ffea0010001cfffd
00120003001effe2
0001fffc0008ffda
ffe7000bfff2ffd6
0010ffdc002afff5
fff10002ffe10001
0005ffea002f000e
0027fffeffea001d
fffd001efff20010
ffebfffe0013ffff
0038fffbfff20017
0009ffeaffeffff3
001bffe60013fffd
0055ffe4ffe8fffb
001000340006002d
ffe10011001e000a
00000018fff7fff1
0010ffd70024ffe3
fffffffc00000029
000c0026001cffb5
000200130002001d
000cfff3fffd001b
ffdafffd0010ffed
fffd0017fff70015
ffeb0014ffd6000b
ffc1fff4001e000d
ffe7ffd10014fff9
fff8fff8fff8ffef
0002ffc9001dffe4
ffd1000bfff40025
ffffffedfff0ffbf
ffe8ffed00030028
000fffccfffbffee
fff800020003ffea
0014fffeffe30006
fff500070006ffc2
ffe9ffe90016fff9
003f000affdbffe1
00100021fffa0004
000900000011fff3
0018ffe1ffea000b
ffffffeffff1fff1
fffefff10016fff8
fff000120014000b
0006fffe00160017
ffe4fff2fff00018
fffc001200020000
fffb000cfffe0014
fffb001ffffa0022
00080025fffa0004
ffe200070020ffe6
0002fff1ffff001f
0027000bffe90009
fffa0021fff3ffea
fff00003000e0008
ffed000b0015ffe2
ffecffda0015ffff
ffff000000030011
000bffe2ffec0011
ffe9000100180013
ffecffef00150010
ffef000d0015ffe8
fffe000e0013ffe3
ffe4000f0005001d
ffff0012ffe20008
fff500220003fff3
fff9fff4fff10009
fff0003000010007
ffddffff0007fff4
00040002001b0003
001a0013000e0013
ffedfff5ffe9fff7
0002001600120013
000c0023fffefff1
0003ffff0013fff6
ffff00050018000a
fff7000700100009
ffe5fff7fff30010
ffde00160022fff5
0008fffffff3ffe5
0012fffb001effe5
0005fff3fff3002d
000c0015ffe30014
00060007fffaffd9
ffebfff500040027
ffde00380004ffec
ffcdffdb0007ffc7
0015fffc001d001c
0011001efff8fff9
0020fffcfff9fff8
0015000efffdfffd
fff8ffff001cffdd
0000ffeb0020ffe8
fff900000007ffe3
ffdcffe70051ffcb
ffca0029ffd4000a
fff9ffe80037fff7
000affecffdd000b
fffe000bffd40005
fff20006000bffe2
0008000c0029ffce
ffd70010ffd60028
ffebfff5fff5fffa
ffd5ffd8fff2001d
fff70000000affe2
ffdefff8fffbffd7
002dfffa001effd6
fffdffe7ffeafff0
0004000d0016ffe3
00110013ffdb001c
0021fffa00020008
0006fff00009ffe6
ffdafffd002cfffb
fff90021ffd4fff0
fffefffb00080016
fff1fffc0009002d
fff60018fff8ffed
000f00080012fffd
ffd7000d0002ffda
fffe0029ffcf0018
000afff3fff2001a
ff980005000f0035
0008ffeeffe4ffe9
ffe2fff80000ffe0
0015ffce00070003
ffd1ffe5ffe7fff7
002300030015ffe8
ffddffeeffe00039
001e0012fff90009
ffdafff30001ffdd
0037002000040002
0003001bfff1fff0
001a000e00190020
001b0008ffe30018
ffe1001a001fffe5
0014ffdc0019ffe4
ffebfff80045ffd5
ffeb002affe1002c
00120007001cffd7
ffcefffdffdf0044
000ffff2ffd8000e
000efff3ffc7ffd5
fff0ffb7003bffe2
ffb4002200170027
ffedffe4ffdbffd7
ffe5ffe7fff00056
003cffc8ffd8001d
ffe10013ffebffcb
0006ffe70022000f
fff4ffe2000ffff0
0018ffdbfffbffdf
001cfffcffcb000e
0017002a00040003
fffafff4000f0008
0013ffe2fff50003
fff40024fff4fffb
0000ffe90009fffa
ffe7001c000f0019
00190007ffefffdc
ffea000900180003
0002ffedffebfff1
ffe4002ffffbfff9
fffb0020fffafffd
ffaf002b001c0001
ffc8ffd0fffdffc7
ffecffe40000000a
0006fff800020018
000f0002ffe9ffe7
000b000f0011fffb
fff6fffcffe6fff9
00120012ffed000b
ffe3ffebfff9ffdf
fffb000400010025
ffe9fffaffe80013
fff4000c0021ffd6
0045ffe9ffdb0009
0033002affdc003b
fff400040001ffd5
0012ffe9001afff8
ffed0009fffafffb
fffcffe8000dfffa
0023000700020007
fff7000bffe1002c
0006001bffe7000f
fff90020ffe4ffe5
001d000f0019ffe3
001c0012fffcfff1
000d0006fff9fff1
fffb0014fff7ffea
fff1fff3000cfff8
0013fff3fff5000f
0008ffff001a0004
000ffff90012001b
000bfffbffeefffa
000d0018ffef0005
0016001bffe9fffb
00020009ffe8ffe7
0006ffdb00010009
fff5fffdfff1fff9
0017ffe9000c0016
fff7000e000b0002
ffe20016000efff1
0020ffe3001b0028
000cffddffe7ffff
fff8ffe7fffafffd
00600002ffc50005
ffff00300003000e
000f0006000affd6
000cfff900200016
0019ffcfffe60009
0017fffefff9ffee
0054fffbfff7ffed
0019003400020038
0002ffe20003ffec
000ffffe0009fff9
0000fff300190003
fffd000d00090011
ffee001bffe3ffe1
001d0013fff1fff0
000e0006000cffe4
0004ffe20025fff7
0004ffdbfff4000a
ffeb0002fff2ffed
0033ffe7ffca001b
001400230013ffff
000effecffe2fff5
0000ffe0000c0003
fff000010004ffee
0007000a0009fff3
0032fff2ffe90015
002900230016fffc
ffe9ffdf00000014
ffd0ffe1ffccfff2
ffd300430010fffd
000200130001001b
ffc700300011ffed
ffe6ffc7000cffbb
ffebfffaffe5001c
fffcfff3fff8fffe
0020ffe600120008
0020fff4fff1fffb
0002fff5000e001d
ffe8fff80027000b
fff80010ffe3000e
00090001ffc60012
000d0009fff7ffeb
fff9001effedfffd
fff500030002000a
ffecfffd0011ffd5
0008ffeb000a0029
ffe1fff700030017
ffe8002c0024001f
ffdafff8ffdc0003
ffc1002e00100005
fff5ffc2000affec
fff8ffec0010000a
fffbffe400020021
ffde000c000bffed
001a000d0011ffe9
fff8fff1fffa0008
0011fff700130012
ffec00110012ffc8
fff4ffd6001b001b
000efff8ffdf000e
fff60000001dffdc
002bffe3ffe70016
00130021ffd30037
00010010ffeefff5
0017ffe200110024
0001ffe1ffe6fffc
0016ffebfffaffdf
0027ffe5fff0000e
0034ffffffc60037
00060000ffee0001
0017fffbffe90012
00040009000a0013
001c000efff90017
ffee000900140005
fffbffe400110005
ffdeffdb00110044
0017001bffc2fff3
0000003d0030ffe5
ffea0011ffe10012
ffd5001400240000
ffd3ffcc001fffbd
fffb000cffe7fff6
fffcfff6fffbfffd
ffe4ffe60004000d
ffffffeb000cfff7
00390000ffe60018
0000000fffe7fff3
00260021ffee000b
ffcbffe3003b0000
0017000c00130019
0003000efff7ffd9
000effe1fff8000a
00150018ffcf0024
00070016ffe10026
fff20000ffd6ffe7
ffd400260019ffe3
fffd0028fff1fff3
ffd4002a0010000c
ffe4ffb2001effc4
0016ffedfff8fff8
ffd2003bffdefff4
0000001cfff8ffde
0019fff9fff30010
ffa7001dfffe0006
0005ffdf000dffd0
fffe00140007ffde
ffe0fff6fff1001b
fff7000ffff00005
000cfff80009ffdf
001dffdcfff2fff2
0007000b0010001b
ffe7ffe9fff0ffec
0004fffbfff7fff7
0015fff90004fff8
ffe900050020ffe9
fff8001200080005
0006ffed001a0002
000effed0010001a
0007ffeefffb000f
0004fff8001bffe6
fff80003fff8fff4
fff4fff30007ffe7
ffe0000c000cfffc
ffe70018fff2000a
0020ffee000a0022
002bffd5000effdd
0006fffaffec000f
003400150007fff3
fff0002400030031
0002ffeffffa002f
00090009ffdb000b
001a00060019ffe1
ffde001fffe9001b
fff1fff9001bfffe
ffd9fff50003fffb
000ffff2ffe50020
fffe0015ffe50014
000f000efff80002
ffe20017ffec000a
000bffef00170006
0002ffe1001b0013
0012000300120018
fff7ffdbfff90016
ffeeffe70000fff7
0006fff8fff30009
fffdfff60007fffd
000a00090005000f
fff30010000ffffe
001c000a0007fff2
ffeafff3ffe7fffa
0016ffed0012fff9
0000001dffeeffef
ffeeffe5002affd5
0004fff9fff40029
fff40018ffd60010
ffff000100160016
ffe9fffdffd60008
ffdb00000008ffe2
ffdcffe20004ffe5
ffe10009fff9ffcf
0014ffd100220020
fffbfff2fff90005
ffedffe50033000b
002a0022ffd8000f
ffeffff500160028
000d000e0015000c
00000015ffd70025
0024ffd8000efff8
ffebffe40014ffff
0000000effebffd6
ffd50018000ffffc
fff2000d002f0035
fff9000300010019
0009fffb0001ffdd
ffc5fff3000d0015
fff40026fffdffbd
ffea0004002dffda
000a0005ffea0001
fff5ffe5001d0006
001f000bfff60013
000500000015000b
002cffdf0005fff0
0014fffcfff10030
00000027001bffe2
002400030029002e
0032ffb40008ffe1
fff6ffd5fffdfff4
007dfff8fff2ffef
fff20058fff8003e
00040023fffd001c
fff5fff8ffe30000
0001ffe2fff5ffdd
ffed001cfffe0028
001c001dfff6ffc6
0000fffa001d0010
0015fffffff00048
ffe0fff0fffd0001
fff3000500020009
ffff0005ffe50002
ffb9fffe00220005
ffceffbf000dffb9
000c0017001d000e
fff9fff5fff3ffff
0012ffe40025ffe8
ffeb000a000efff9
001800180010ffd4
fff0002e00270006
000d0006000effee
001affe2fffa0030
fffdffd40000ffe3
000ffff7000affe6
000dfff3ffe30009
00040029fffd000f
001600150019fff6
ffd80016000bffee
ffd9000e0005ffed
ffe40015000ffff0
ffca0016fff50009
000b0003fff5ffe4
fff00018fff70008
ffe60000001d0022
ffebfff3fffafff6
ffefffea001cffdb
000affdd00030010
001b0024fff0001d
0003000ffffb000d
fff30018000b0013
0005fff50008fffe
0002ffec000affee
fff5fff6ffe8000d
000effffffe7001a
0014001c000effed
fff7ffdf0013fff4
ffe9ffe7ffd9fff7
000effde0015ffe7
00230004ffefffff
00180020fff30030
001dfff2000cffdf
fff6ffebfffb0001
000bffebffe1ffef
fff9fffb00180002
000dffdbffe20016
0013000dffe40028
ffe2000e0015ffec
001cffffffe9ffee
0019fff80004ffe7
0014000b002d000f
fffb000ffff2ffe8
fff30016fff9fff1
ffea0007fff80002
fffafff00009fffd
0008fff9fffafff0
ffe4ffee00130011
fff9001afff20003
fffcfff4001cfffe
ffe10016001d000f
000b0015000a001c
000c0016fff3ffe2
001100090018fffe
001dfffbffef0003
ffe5fff500230014
fff7ffe8000c0012
0022001affe4000e
001b001f0011ffe4
fff40007fffa001c
ffea003e0027ffe2
ffcdffde0010ffe6
000effe50003fff9
ffe8ffea002e000d
fff2fffe0005000c
fff2ffef0028ffe0
0006ffd6ffe6fffc
001c002b0003fffc
0008ffddfffd0013
fff0ffe2ffceffeb
ffc30019fff2fff7
ffda0016ffdffff8
ffae0011002e001c
0001ffb80040ffbb
00030001000d002a
0010ffe4ffcafff5
ffd4002f0011ffeb
0012001f0024fff7
ffd4000d00260029
ffd9ffeb003effa4
fffdffeaffe40008
00170017fff4ffe8
fffefff30003000f
000efffffff0fffe
fff2001cfff3001c
fffcffe50028ffde
ffeeffecfff7000d
ffed0000fff3000e
fff7fffc00030012
00010014ffd2ffd8
ffcf001b00050026
fff2fff10007ffdd
fff4000cffe00003
fffa0003ffecfff8
ffeefff2000e000d
fffa0013fff5fff1
ffd8000100230015
0002ffddfff9ffff
fff2000effd40021
0029ffd20008ffe8
fff2ffdd000e0018
ffeb0018fff2ffdc
001bfff7fffbffd9
00100000ffe3003a
fff90001fffa003c
001dffe2fff9ffd7
ffce001500170002
ffdf002affecffda
ffddffeafff7fff7
0004ffd8ffe8ffe3
000c000000050021
000c0008000c0000
0003ffeb0002001e
ffe90009fff80001
0012fffa0003001f
001800180016ffd1
000bfff3fff8001a
00110011ffdffff3
fff6ffefffe3ffec
000cfff5fff7fffc
ffe90004ffee0020
0014fff20026000c
0012001bffd70007
000bffe800030017
0003ffca000bffed
000dffff00130006
003a0006ffe0fff6
00170002ffc90039
fff2ffddfffaffd7
ffd10016001efff4
fff4000b00090011
0026ffddffd3ffe8
0000ffe7ffd8000d
0030fff0ffc70015
fff60026ffee000e
0015ffe700250000
0007ffdfffe4ffef
fff1ffde00010009
0021fffcffdbfff6
00220033000e0039
0003000b0008ffe4
0016fff30024fffd
ffd60007fffbffec
000800090024fffa
0035ffceffc7ffff
0033000200070000
ffeaffe60011ffe8
0001fff3fff70010
ffe50010fffa0025
000cfff600230005
0007ffedffec0028
00150009fffffff2
00050009fffd003f
00100017ffdefff9
0035001400150005
fff40006ffd6001a
ffe1002b0042ffd7
ffebfff40005fff9
fff7fffafffc0027
ffe6002effbd0006
000f0023001ffff3
ffff0036ffc20023
ffa6001d002fffe6
fff7ffca0027ffb9
000c0009ffeb000f
ffdd002affcbffde
0013fffc000cfffb
00220025ffbb0031
ffca002500100000
ffecffc1001affc8
001d00000015fff0
001d001effefffff
fff8001b0015ffeb
ffea0006ffdd001a
ffe20021000fffee
fff8ffe70013ffdf
000afffdfff6fff4
fff6000fffee0006
ffdf0023ffe00012
000b0014000cfff3
ffe1ffff00170006
0008000cffd5000e
00050006ffeb000e
000f0020ffe0ffec
0011fff3000cffef
00200011fffffff8
000c00230001ffeb
fff4fff2fff70016
ffe0fff5ffeeffdd
001cffef00180019
ffedfff4ffe4fffd
0008fff300140007
002e0008ffc50025
001e0026ffda002c
000bffdd000f0006
fff40020fff9ffd3
ffdd0012fff6ffeb
00120011fff90007
ffe5000ffff2000f
fffe0001ffeeffed
0004fff7000f000f
001a00040021ffe3
fff4002cffebffff
ffee0006fffb0007
fff00000fff00000
ffeafff8ffe2fff1
0023ffd7fff7fff0
fffcfff9fff1ffee
ffe30021ffd60028
0005fffaffe9fff5
ffc70015fff50045
0009ffe6fffefff7
ffe4000d000affe2
fffdffe40020001b
ffe00009ffcfffe6
0014ffe6000fffcb
002effcdffd6003d
00420026ffcf0016
fff6fff600010000
fff1000afffdffe1
fffeffea000dfffa
fff90020fffc0011
00070009ffebffdc
000e0001ffeeffff
000a001c0007fff8
ffed001000230017
ffe6fff700040001
0013fff00005fff0
002b0002ffff0006
ffee0014fff4001f
0014000efffb0008
0003ffeafff90028
0019fff00005000b
0013fffb0014fff2
00270006fffaffe6
0019003afffa001c
0005fffe0008fffd
0010ffef0007fff5
0030fffffff1ffef
ffe4fff8fff5000d
0018ffeeffe70001
ffe2000d001c001a
001cfff5fff10019
0005000dfff8fffa
00270008fff0000b
fff4fff7ffdc002a
0013fff60012ffed
fffdfff0000d0008
001affff00040029
fffa0017ffd20003
00070001ffff0004
ffe7000afff30022
0008fff7001f0000
ffeefff10016fff7
000efff30019000a
ffee000dfff70000
0017ffeb00020004
000d0018fff1fff4
0023fffffff8ffd8
fff9ffeb001afff9
fffffffbfffffffd
001f000900000022
fff0fffeffeb0003
0011ffeefff1ffef
000efffd0019fff3
0000fffb0020001b
fff4fffefffa0028
ffe4ffff0004000a
001500190021ffeb
ffe7fff8000d0005
ffdc00100002ffeb
ffeafff9002cfff7
0012fffafff6002b
000c0009fff4fff8
00050005fff1001b
00120009ffec000e
ffe600070022ffe2
ffe4ffed001affd7
0002fffe0009ffff
0018001cffffffe8
0023000cfff8000a
ffe5fffe000a0021
001f0008fffeffeb
fff7001b0004fff0
ffecfff0fff70005
0003000a0006000d
fff5fffe000f0002
000e000e0008ffe4
ffeb000000010008
000cfff6001affe5
001a0002001b0011
00170008fff2ffd6
fffd000c0005fff1
0001002e0011000b
ffc400000012ffee
ffe7fff60000ffcf
00020007001b000a
fff70011000b0004
000a000a0000000b
ffe6ffff00210002
00150001fff8fff0
000bfff5ffe2fff8
000dffe9fff0ffd9
0006ffd80031000f
ffec000efff80001
000700160003ffd8
0023ffffffed0017
0023000bffec002d
ffff000b0004001f
fff4fffefffbffe3
00050008ffffffe3
fffc0011ffef0005
ffd3001b001e000b
ffeefff400160004
fff9ffe9fffc0009
fffe001affe0ffe6
ffff001bfff5000b
00180018ffe40012
fff6ffe500200002
ffebffe90003fff4
001afff70009ffda
ffe20001000f0012
ffdd0000fffe0020
000affe7fff7ffda
00100006ffe70001
001d00080003ffec
fff90000ffe6fff9
fffe00160011fffd
fffc0009000ffff0
001d0017fff0fff7
000e0013ffe9fff3
00040029fffc002b
0010fff1fffbffe4
ffee00110021000a
fffe0019ffdf0012
fff7ffe1002a0018
00010014ffdffffc
ffef000effea001c
0010000e0016fffb
00140000000f000c
ffe4002dffecffe9
0008000600270011
ffdf001900090022
00060008001fffe8
fffb000a000a001a
00020024fff8ffe8
ffd7000cfffa0010
fffe0001ffe5000f
ffd3fffe0024001b
fffdffc5001bffd2
ffe6000d00080013
fff7000c0008ffeb
0001001affe5000c
ffe7fff6ffe80028
001f00020010ffd5
ffde000effe70001
ffebffe7001b0011
0001000d0017fffb
00000005ffeffff1
ffe600040000ffe6
00110008fff2000d
fff6ffecfffa000a
00160004fff90025
00180024fffaffe2
ffef0003001d0007
fff60018fff80021
000d00200010fff6
fffcffe0fffbfffa
fffa00160011ffec
fff4ffef002e0006
ffe5ffe6ffd2fffb
fff7ffef00240006
0010000bffcd0016
00020026ffe2002b
ffeefffe0006fff2
fffdffe1000b0018
0002fff0ffff000b
001f00070032fffe
0028ffddffc80023
fffcfff8ffd50023
fff5ffef000d000e
000b002cffd7ffe6
fff7000d0008000c
0012fffdffd5000c
ffcc0011000bffea
ffdf000bfffdffdb
ffe60014ffeb0003
0008000e00270017
0014000700100019
fff200140020fff5
0013000a00190018
001b0004ffe1ffeb
fff9000d0009ffd1
fffbfffe0019fff0
fff9ffecffecfff4
0020fff30010ffef
0035fff0ffe80011
0011001cfff7001d
fff9ffec00160015
fff9fff3fffcfffe
000f000f0002001a
000e0027ffe30017
ffc4001e00050006
ffd1ffeb001cffe1
fff00001fffbffef
ffe800260000fffb
0023fff90015ffeb
ffecffe6fffafff0
001afffbffe9fffb
fff50001ffe2fff6
00090006fff4000c
000e0019fffefff2
001f000a000b0014
000bffe9fffdfff7
ffe1fffa00120013
ffe500050003fff8
ffeefffd0018000b
ffe60002ffeaffff
0017fffc0014ffee
ffedfff7fff80008
ffd3000e00280016
ffecffed0002ffea
0001fff8fffb0000
ffe5000cfff80015
0019ffe90019ffff
0019ffe1fff4000a
0020fff4000fffec
fff2fff5fff6001c
fff6ffebfff5000c
0012fff0ffe8000a
fff2001efffcffff
000d00160001000d
0002000d0000ffe9
ffeb0009ffebfff5
fff4ffe6fff4ffe9
0002ffde000bfffa
fff7001fffecfffe
000fffe70022ffee
fff0ffec0003000b
fff500020001ffe9
fff60005fff2fffa
ffe8000b00060009
ffdb0003000dffeb
fffa0009fff10008
fff7fffd0001001c
000dffedfffefffb
000f00100003fff6
ffd2000e000ffffb
0020ffd0fff60003
001dffe9ffdc0002
ffcdffbbffe80015
000afffaffe9ffe9
0002ffe5fff80014
fff6fff4000effdd
fff2001a0025fffb
000b0011ffffffeb
ffd0ffe4000afff0
fffeffd2ffddffdf
00080005fff8ffcf
ffe9fff2001c0012
0014ffd7ffe2fff4
0030fff80014fffb
0034ffd8fff6fffa
fffc0023ffd1004f
0002ffeeffed001b
ffeb0011ffc2fff3
0014ffeb001cffe4
00030005ffb70001
ffcf00310036fff7
0002ffd1ffedffd7
fff50003002b0017
ffc2ffed0003ffd2
ffc60027ffeb0029
000100030012ffe1
ff8c001500240026
ffd6ffe80004ffd2
000a00130020ffd9
fff7fff90037ffe6
002afff800070010
0013ffe5ffe8fffa
0011ffe9fff3ffd7
00100023ffe3002f
001a0007ffdb003c
ffe9ffe90006fffc
ffd8003600400023
ffe80033ffc5fffc
ffb60007001ffff5
fff2ffcffffcffee
0002ffed0009000a
ffeefffc0031ffdf
ffc80007ffe7000f
0014ffef002cffe3
ffb5ffd0001c001d
001dfff1ffebffd2
ffe1fff800010001
ffef0001ffe4000a
ffd3fff400000012
fff4000400230008
0003fff000100002
ffeb00070008fff8
00030008ffdefff1
0024ffe4ffe1fffa
ffe90007fff8001d
ffe70015000afff8
ffe7fff5000d0018
fff5000c0006fff4
fffe0006ffee000d
ffe1ffde00010004
fff7002f0013000c
ffde001d0020fffc
fffc000dfffbffff
000fffe0ffefffcf
0011001dffebffec
0000ffe5001fffff
fff8ffe7001b001b
fff600000004ffd8
0038ffddffde001e
0015001bfff30040
0011fffbffdeffe2
0006ffd2003a0023
ffe4ffd90009001a
0003fffc0004ffb9
0049ffb6ffc70014
00430036ffd90049
ffdd00120011ffe0
ffeaffee0034001b
ffd80007fffe0006
fff0fff20038ffe2
0039fffefff4fffb
001a0000ffe80009
000600030017ffe8
0016fff900300008
0013ffea0011001d
0007fff50024ffe3
0023ffd6ffedfff0
00150023fff8002c
0006ffefffef0012
ffe00017ffed0008
000dffe30002ffeb
ffec0014fffd0002
000dffdcfffdfff3
ffeafff8fffdffef
0009fffbffeb0015
fffcfffcffd2fff6
ffe4003d0000fff9
0004fffdffed000f
ff9f000400200026
ffc5ffc3001bffc8
fff3ffe4fff2fff9
0003fff90030fffe
ffe8fff90017fff1
0009ffe2ffe7ffd3
0016ffdcffdb0020
0032000d000f0008
fffe00070002fff4
ffd7fffdfffb000e
fff000120014001e
0005fffffffbffd1
ffe3ffd7ffe3001c
0014ffedfff0ffd3
ffe7ffdf0009fff8
fff3ffd20025ffe5
fff8000700010000
ffe2000900060003
fff7000100090012
0012ffd3fffe0004
0010ffe8ffed0001
0017000bffee0002
0010ffe9fff50023
fff3fffcffdb0018
00070000ffed000d
ffe70000ffdf000c
000bfffe0009fff0
fff8ffe700080006
000effcafff4ffe9
00170010001fffde
0040fff3ffc9000d
0010003000010039
0002ffeb0018ffda
ffd7fff6002e0008
ffe2002600220001
fff7fffb001dffde
000affdcfff2000f
ffed000bfff9000e
001200100013fff9
ffffffe9001cffef
ffea0002ffef0002
001bfffefffa001f
fff4fff3ffd5001e
ffff0012000ffff3
fff1fffefffdffe5
fffaffc50010ffe5
ffedffeeffef0023
ffff000a0011ffee
ffd2ffd4ffe10018
0004ffee000a0018
ffe2000f001bfff3
00130002ffe0ffea
000a00020002fffa
0015000100250002
00120019001bffee
fffbffd10018ffe2
0009fff7ffe4fff0
000100180009fff5
0006fffcffec001e
fffe0017ffdb000b
ffee0004ffee0013
0002ffdeffe2fff5
fff4ffeeffea0002
fff0ffe10014ffe9
ffe0fffffffcfff9
ffecfffbffdfffe6
0004ffe2ffee0002
0004ffdfffe90010
ffe9fffeffee0012
ffefffdb000cffe3
ffe4fff9ffff0012
0017fff80010ffde
ffe3ffe600170024
0008ffd500020007
00190009fff1ffce
ffee001800250002
0010ffd6ffe1000a
fff600000009000f
0021ffdcfffffff7
0009fff800080021
001affeefff3ffc8
ffe200000024001b
0001fff6ffe4fffb
0010fffe001fffe1
0005ffddfff50026
001cfff3ffd70015
00080006ffe8ffee
fff1ffe1001b001d
000b0008ffe3fff0
0001fffa001a0006
0003ffecffec0007
fffdffebfff5000f
0007000ffffeffed
ffe3fff900200006
0003fff4ffea000f
001e000200010001
fffafff7fffb0002
000cfffbffe40011
000200010002fffc
ffe80015fff50017
fff1ffe7001d000e
fffc00020005fffc
fff30003000bfff4
ffe5fff30013fffc
00170016ffed0019
00030022ffe9ffed
0016ffe1fff9fffe
fff60005ffe5002c
0011000600090004
ffdbfffd000efff9
ffe0ffe800030010
002f0023fff0ffe9
fffb0022ffe0fff2
000dfff80010001e
002a0023000e001a
0007ffe60011ffe9
00150003001d0034
000d000effd5ffda
ffdf0012fffdfffe
ffea002a001b0003
ffee00210018fff8
ffd2fff90005fff1
0002fffcfffd0035
00130021ffdb000b
0007000ffff2fff0
ffea0032fff1000d
00180028000bffda
0004fff10021ffeb
fff9000fffff0001
002c000d0012ffee
ffd1ffff00010001
00030009000bffd7
0006fffdffea0020
fffc000dfffe000c
fff2ffeafff9001d
00270007ffe9ffee
ffe6fffb0018fffa
ffea0016000fffee
ffe60006ffedffe1
fff7fffd001ffff3
fff10015ffedfff9
0022ffe10015fffd
ffe70032ffe60002
fffcfffa0016ffde
ffd9000a001a0002
0006fff7001e0001
000dffe5001bfff4
0007001affedfff0
ffd1002bffe30003
ffdf0007fff9ffec
ffad0011002d0031
ffe3fff0000effb9
fff0ffe90013ffe8
0011fff1ffdf0014
000600010002000b
001b0012fffeffe7
ffd30012000b0013
ffeffff9000cfff8
00120012000fffe8
002dffed0020fff6
fff00005ffdbfff3
0001001800210019
002fffefffdf001c
0010001d000a0009
fff6001800090014
0020fff500090016
ffea00050002ffef
ffe2fff900210000
ffe90002fffa0015
0015fff40000fff5
fff60004fffb002e
0003fffffffcfff8
fffd002dffecfff7
00090007ffeb0020
fff30014002cffe6
fff1ffffffffffd7
0002ffe90003001e
00050028000cffe3
0014000cfff70003
ffed0005fff90008
fff0001f000b000c
fff4ffe8fff5ffdd
fff5fffcfff4fffc
001500050006fff0
0004ffe0fff0ffe8
0007000d0016fff0
0032fff600050001
001800170003002e
ffe30010ffe0fff1
001b00140014001b
0008fff7fff0fff7
fff900190010ffeb
000a000dffd7fff9
002a0024ffef0039
ffe9ffeafffe0001
0010000afff0ffe0
0021001cfff5ffd5
ffed0019fffdfffc
000e00200016ffd5
0003ffef0009000e
fffdfff4fff6ffee
000700100012ffe3
ffee000affd1001e
0008000e0004ffe2
ffeafff1fffd0020
fffeffe60032ffcc
000dffe4fff0ffd4
001effc500190019
ffd8fff2ffe9000d
001cfffa0014ffcb
000dfff5ffd5002d
00330028ffe6001f
0008000affe7ffe6
fffd000600150016
00130011fffbffe3
fff90007000e0009
00270008ffe3fffb
ffe9000e001f0001
00000004fff20025
ffe5fffcffe6fffd
0014004200250024
0007001effd5000d
ffc300060027ffe2
fffbffe3fff3ffbf
001f000a000bfffe
fffdfffb0016fff2
00110015fffd0014
ffeaffe1fff90000
002efff0ffe50014
000a0015ffdb0021
000d0000ffe5ffec
ffe5fff9001a0010
ffea000c0009ffec
0012fffcfffd000f
ffeafffdffff001c
0018ffe5ffecfff3
0006000d0008000c
fff2fff3ffd2fffd
fffd001c0005ffd8
ffed002b0001fffc
ffec001dfffafff1
ffe9fff40024ffda
fff5ffe1001a0039
ffd80000fffbffd1
ffeb002d001f001d
ffd9002cffd10003
ffa6000400150002
ffdfffd6fff7ffb8
fffbfffbfff2fff8
0016ffe2001b0003
fff80006fff60011
ffff0007fff9000f
0028fff9000a000a
00100019ffe80032
0003fff5fff1ffc5
0020ffe6ffd9000c
ffefffddffddffe1
00190010002affe4
0029fff0ffd30025
002b0025fff5002a
fff00005ffe0fff4
00040016ffe1ffe2
0025ffeafffaffd8
ffecfff7ffdf0000
0012001a0006ffe4
0015ffff00000000
fff7ffeb000a0026
ffee0007000efffb
fff6002d001ffff7
fff1000bffff0017
ffbe00160028ffe0
fff7ffeafff8ffe0
0000ffe400100032
ffe1000efffdffd8
fff1003700180016
fff7fff3fffb000b
ffb20027003a0000
ffecffb8002effc6
0010fff80014ffff
0005ffe3ffec000a
00180013000f0012
fff1ffe40015000c
0004fffcffedffe2
ffff0006ffee000d
fffb0006000fffe7
0015fff1fff00018
fff9fffcffe5000c
fff9fffa00110007
002b000600060001
000c000100090017
fff00013fff30009
000effe500010024
0003fff1fffdfff8
00010007001fffe6
0028ffe9ffeeffef
0014000bfff1000f
00010007000effe4
fffdfff400350004
002cfffaffe7ffeb
fff4ffdd001dffe9
005effefffcefff2
000c0031ffde0039
ffe100100008ffd7
ffebfffe0028001e
ffeeffe30011ffea
fffcfffe000d0004
0021ffe2ffed0005
00010008fff90029
fffc0000001c0005
ffeefff1fff1000f
ffe50018fff7fff8
0007fff5002a0018
0006ffe00011fff0
0003001effee0004
0012000d0025ffeb
fffc0017fff40016
000b0018000a0015
fff0000000020013
000bffe4fff2000d
ffe00011fff6000a
fffffff7000affff
ffebffff0010001c
ffe8001effebffea
001100080025002c
fffa0019000f0010
ffefffef002efffb
ffed001a0001fffa
fff9001efffcfffd
ffe0ffedfff3fff0
00140016000dfff4
fffa000d00030005
00160022fff00022
fff0001a0017000c
ffdfffed001cfffb
0004fff30008ffff
000300080008ffea
ffe8ffe1ffffffeb
000b0004ffe0fffa
001c000cffe8fffd
ffe6ffde00270011
000cfffb0015ffed
0009ffe7fff0ffdb
0005ffd9ffdefff5
001d002000040012
ffed0017fff7ffd2
000bffc800130007
ffddffe5ffcffffb
fff70008001dffe1
001effcfffe80031
0032002dffed002e
000d00050018fffd
0015ffe70001001a
ffe8000effe10000
0016fff400230014
0004fff3fff20028
0003fff70003000f
fff10012000f0000
fffe0001ffd7ffe9
fff40019ffe2ffe5
00050011fffb001a
ffe90001000ffff3
fff3fff9ffffffe5
0009ffdcfff7000b
00020003ffe9ffe4
000bfffc00000013
001b001b0009fff2
ffea00070014001b
0006fff4fffdfff9
000dfff2000d0004
fffe000b00030013
000d000afffb0006
00160004ffeb002a
fff20038001fffe4
ffd2000e0029fffd
0008fff0fff4fffd
001f0026fff0ffe3
0023000dffe9fff1
fff400250009000f
fff3002b000bffe3
0001ffe60025fff5
0019ffe30029003f
fffc0029ffc8ffe6
0023ffff00190009
ffdf0006ffed0012
ffda00220000ffee
ffc8ffea003effeb
ffed0000ffebfff5
001afffbfffe0009
ffd70011ffe30009
0013000d001dfff5
ffdaffe400110031
0002ffff0013fff7
ffefffe3000d000f
ffe1fffa000dffeb
ffd5002bffff0023
00060014fffa0010
ffb7fff1000f0013
fff7ffcb0005ffc4
001d000afff20021
00240008fff30008
fffffff8000a000f
000cfff4ffd7000a
000100080002ffe8
0005ffe50018fff3
ffee000bfff6000b
0005ffeefff80001
0016fff200060010
fff7ffeeffeb000a
fffefffa000a0000
000b0017ffe30030
0004000bffdeffdc
fff3ffd300140013
ffebfff4ffea000c
0005fffa0007ffe8
0032ffe0ffda000e
0000000cffd50030
000d0000fffcffdc
ffedfffd003e0012
fffc0006fff90032
fff5ffe10013ffd8
fff7ffee00080016
0025fff3ffe1ffe9
0017ffe1ffe0ffe5
0002ffbf00140006
ffe1ffdd000f0001
0018ffe30020ffd1
001bffdfffe5002f
00170002ffd8003a
fff6ffe7ffeeffde
ffefffe00016000e
ffd3002b00140002
ffeeffe80012000b
0004ffee00060009
000bffea0017fff2
0000ffdffffcfffc
ffc4ffe6fffbffe2
ffe8fffafffefffd
0002fff9fff50008
ffdbfffdfffd000d
0001fff90003ffdd
ffecffff0015ffe6
ffedffc8003fffe5
ffeeffee000f001b
0014ffe6fff5ffe5
001cffe3ffe10016
00210018fff20024
000b00180003000e
002bffe70011fffe
ffe8fff9ffea000e
ffe900090033000a
0035000300040013
ffde000c000e0010
000cfffb000cfff4
ffbcfffbfff20002
fffa002d00010028
ffe4fff8ffebfffe
ff97ffed00220017
0000ffbfffddffc5
ffe8fff00001ffc6
ffe4ffd90039fff9
ffed0013fff80024
ffebffe60020ffe4
001dffd7ffe40001
00230015ffc4002f
000f0011000bffd6
fff00025fffbfff7
0006ffffffe9fff1
fff9ffe8000c0015
001afffa001a000f
0004001200030002
fff200050021fffb
0016000cffebffe5
000a000800210000
ffff002affeefff4
fff40019001dfff8
001100150013ffea
ffe300000019fff4
fff6ffe2002fffdc
ffdd003000210018
ffdd001f0017fffb
ffdf0004001c0008
0006fff40012fffe
ffddfffc001e0025
00350011ffea0016
fff3000d00070007
fff9000a00220011
00280010fff7ffed
ffd50004fff40003
ffffffe2ffe6ffeb
fff4ffef0008fffa
ffc70025000cffff
000cfffbfffcfff4
ffe0fffdffe70019
0009fffdfffafffa
fffaffde000d0006
0003ffdd0010ffda
fffc0027ffe60014
fff3ffe30003ffe8
ffca0001000f0021
0001ffcd0005ffe9
fff8000b0010000a
000f004cffddffcb
fff2002dffe60013
001afff6ffdd0005
ffb80005fffefffa
ffdbffd7fff3ffbe
fffbffe70008ffd3
0002ffc40040fff6
ffe20019ffcb001d
fff4fffb0027fff5
fff50010fffb0037
fff1001fffd5001e
0009fffd00130041
fff40030ffe9fff1
ffc60015000afffe
fff20015ffda0009
ff80002c0050fff0
ffe6ffc1001cffab
000900080007ffcd
ffe800150045ffc7
fff1fffdffcc001c
0011ffd6fffdfff4
ffdefffb00040028
0012001fffd80005
ffea000c000c0008
000fffe40014ffdb
ffedfffb00100023
00230001fff1ffe4
001b001f000a000a
ffdefffb00080005
fff9002a00070042
fff9fff900010009
ffc3002b002e0001
000d001afff9ffd9
ffc600360030ffeb
ffe0ffc6ffe6ffd6
0021fff00004ffda
ffdd001c0002ffe0
fffe000c0017ffef
0011fffeffde0009
ffdeffd1fff1000e
0024001affd6ffe4
0012000b00150006
0011000700010011
000f0008ffed0002
ffe10008fff6fff7
ffe90003ffe5ffff
fff900180015fff5
0018ffed0013fff2
ffe1ffef000cfffe
ffd4fffafffa0015
fffe0017ffeb000d
ffd0000400160009
fff6ffe0fff3ffde
fff100090004ffbd
0005000200310024
0009ffd50007000c
fffdffd30005ffd7
0038ffefffd00013
0020001dfffb003d
00080016fff3ffe9
fffd0011ffe5fff7
0000fff30004ffec
001dfff5fff40022
0013ffe9001b0005
ffeafff00008fff2
0006000d000affcc
fffc00140022fffa
00180014fffe0018
0003000f0001ffef
0023ffefffe7fffe
fffc0020fffb0025
0015ffef000fffe5
0003ffdd00150017
ffeafff3ffe80000
fffafff700280009
0018fff50008000b
0025000dffdd0028
0015ffe400000031
0002ffecfffb0005
ffe6001d0024fff8
ffdcfffcfff30008
ffb6fff80030ffde
fff4ffd00015ffce
ffe7000c001effdf
0014ffd9000afff5
0016ffec001bfff1
fff3ffe60002ffda
0008fffe000bfff2
0018000afff60018
ffe000180023000e
0007001500100005
001d0014ffe90002
0017fff200170012
0008fff90014ffec
ffe1001200120018
ffe5ffe6ffff0008
0022fff1ffdd0012
0005ffff001affec
fffafff3ffdf0015
0007001900050001
0001ffd40003ffe5
0016fffbffd70000
ffebffffffdcfff8
fff6fff1ffeefff3
ffec0011ffd00015
ffebffeb001c0019
ffee0004000cffec
0001ffdeffe4ffd8
ffe1000b000bffed
000cffecfffcffea
0023fff2ffcb000d
000e0001fffd000f
00170003000ffffd
ffe20021ffecfff9
004a000effee000c
0003fff7ffd4ffd9
0021ffe900230005
004dfff1ffe9fffd
fffd003e00080036
0013fff2ffd7002e
00020039ffd3ffd3
0013fffafff7ffe0
ffeafffbffcc0009
ffc900170019ffec
fff1ffeb0028fff6
00140018ffd8ffeb
fffbffeb0006fff7
00010018ffef001b
0008fff90017ffec
00080023fffc0013
0010ffdcffeb0014
000b0005fff5ffd3
0015fff20013ffef
ffc7fffcffd20030
0026ffe40009ffcf
0004ffd8ffe00068
0011ffe9ffef0000
ffe3000bffcbffcf
0013ffe4fffa0014
ffeaffc3ffdafff1
0021ffdd0021ffd5
0032fff8ffcf001c
001e00350014002c
00170000fff30026
ffd5ffecffe7ffcf
ffdf001c0028fffa
fff40001fffcfffe
ffc7fff7fff9fff6
ffe7ffca000cffcb
fff4fff30017fff5
00180013ffe30015
fffd0005ffef0008
fffb001000030002
00040018fffa0008
fff80008000a0003
fffbfff2fff2003d
0009000bffd50000
fffc001e001fffec
0017000dffd5fffc
ffea000d0030ffd4
0001ffd50022ffdf
00090000ffec001e
fffafffaffdb0017
001f00010009fff6
00040009fffdfff8
ffed0008000effdf
ffe1000d00150006
fffd001700130004
fffeffe7fff90017
ffe2fff1fff30017
0006fff3001afff5
001dffebffe50019
00090010ffed000f
fff80015ffeaffdc
0010fffbfff8000f
fffbffe10003000b
fff4000cfff7fff4
0009fffb00020009
001b001efff2002f
001efff7fff1ffff
fff8fff500260010
fff3ffec0015fffc
fffdffe8fffefff7
0033ffd5ffd7000d
000b0032fff3002b
fff40004000e0017
fffd000d00040005
001efffe0001fffe
000e000dfffb0011
ffec001d0023fff2
ffe900060011ffeb
001bfffa000e0010
ffec0017000cfffb
001bfffe000a0021
ffe3fff8fff90013
fffe00140019fffb
0013ffef0009ffe6
0018fff900110025
000e000fffc4fff4
00040016ffff000b
ffe60024ffd60017
ffee00100033fff4
ffcfffe40023ffbc
fffaffb4001f005e
001cffd5001effcc
fffe0018ffcc0023
ffaeffccfff2004f
ffecffe7ffe0ffc8
ffeb004dffe6002a
000ffffeffba002c
0007003affe6ffea
ffd20010005effe5
ffd9fffaffc6ffd4
003bffe5ffddffa9
0018ffc3ffc10051
ffe3ffeb0036000e
fff0ffecffd30049
ffeffff00002ffc8
003cffecfffaffe4
000f0027fff2ffbb
002fffd70030ffef
ffbe002000050046
0023ffe1001bffe4
ffdafff40024fff5
003c0021ffcbffde
fffa0005ffcd0008
ffe3002a00350040
fffe001600380028
ffa4002e0022003d
ffc000300045ffc7
0024ffeb00120011
001afff7ffcfffee
ffc60055ffe9ffcc
00100018000c0002
00420000ffce000a
ffd0ffaf0011fffd
ffbdffe90004ffe8
ffdaffeffff7fff5
0039ffa90000002b
00240003ffc10045
000cffc00000ffbb
ffdb0016ffdaffff
ffaeffdf0019fffd
0062000effeafff1
fff6ffeaffd10024
0006ffcbffe0ffd9
00090021ffe9fff9
ffd8fff100030029
ffecfff20004001a
0008ffe9fffbffed
fffffffd0005ffea
fffeffd6fffdffd6
0009ffb8ffd2ffef
ffd2ffc600320033
ffecfff2ffa7002e
0011ffc4ffe70016
fff8ffac0039000e
ffda00170015000a
000ffff60015ffe9
fff3002c00210022
ffe800000009ffe4
ffdeffdffff8fff6
003bffad00230023
0035ffdf001e0051
ffa7ffe4001cfff6
000d004f00160035
0026ffdd0053ffbb
ffddffe10052fffc
000e004900310049
0030ffd2ffe3ffbb
00020016ffec0031
ffdf0032002ffff0
001f0060ffd1ffc3
ffc30011ffe3ffe7
0000ffedffe1ffe6
00100039ffb5ffcb
002afff1fff7ffc6
001cffdaffd8ffef
0015002afff80010
001b0022ffe60030
001cffbffff60036
ffb30000000effe0
ffd8001500140016
003c0016ffff0022
ffe2fff7002d0038
000800380021fff7
ffb1002c0004ff9c
002bffe100100046
002a001c000c0003
ffe10033ffc5ffdd
ffdfffcb00370029
ffedfff90029ffc1
ffd2ffe6ffe20028
ffd30019ffddffc6
0000002cffe0ffdf
001f0053002c001b
0022ffe0ffd6ffff
003d0008ffbe002a
ffec001f00360048
ffcc002affdc0015
0005fff6fff90009
ffd0000bffd6ffd4
fff9ffd5ffc4ffe3
ffbeffc0ffeeffd2
ffefffe200400047
005c004e0019ffee
fff000150005ffca
0002003c005f002a
ffd7ffecffd6002a
ffe6fff200290040
ffceffe80006fffe
fff7000bfff5003f
0001005b00290023
000700190007ffe2
003400040032000e
0031ffe6ffe50005
ffcfffd5fff5fffa
001bffcfffccff9d
0020ffea0000002b
00230018ffb8ffeb
0005ffee00050002
fff00050ffdbffd9
ffe5004affdbff80
0000001affe5ffdf
0000ffc2ffee001f
ffccffbe00120008
0046ffeeffbaffe7
005cffdcffdc0019
ffe2ffc9ffcbffd3
ffae0007ffd50053
ffdd00060027fff0
ffd6ff9e0036001c
ffc2ffaaffe8fff3
001dfffdfff6fff9
002bffd0ffe9004a
001bffdeffee002d
ffb70051ffe3000a
ffeb0047ffc60026
0003ffe000340047
00280011004b0004
00000015ffa6000c
ffcd000cffbeffe4
0047001affff0025
0008ff94ffbeffde
00250034fffcffeb
0009ffc4ffd7ff94
0037000c0024ffd6
fff4ffdbffabffc4
ffef0012ffcffffa
ffc7ffd6ffae003b
ff98fff3fff2004e
0070ffdc0030002f
0026ffa10026ffda
ffa2ffc2ffeeffcc
001f001300180028
0019ffabffcd002d
0032ffcbfff3002a
0076000e0011ffea
001a003c0045001a
002f0035ff99fff2
ffd70023000a0026
ffdb002200010024
ffbeffdafff5002c
0017003c002e0027
0017ffdfffd90018
001a0037ffdc0021
0039ffeaffee0017
000d000300350010
ffe6000f001a0016
000fffb600350001
0008ffbb0035ffc4
ffee002b000f0035
ffb7fffeffcf001f
0026000cffeafff4
00240025ffd1ffce
00110021ffd2ffdd
ffe5ffd40023ffc9
0000ffd7001cffbb
00190009ffd50034
ffdc0029000f0002
ffedffe40024fffa
0005001e002b0048
0035002bffe70012
00210000ffeafff9
ffaf0027ffce0014
ffe30030ffc1002a
003c00370036fff8
003e002d000f002b
ffdcffe4ffdaffeb
fff3001dffd8ffd6
001b0025fff80014
ffd6ffc0ffcd000c
ffec001d001effec
0035fff00005fffe
00140014002affee
003bffdd0011001f
000ffff00046003b
ffa5ffe60058ffd8
006d0003fffdffb8
ffa6ffeeffc20026
ffe7ffe4005f0002
ffff006bfff2002e
0031ffbbffdfffc3
ffe500110062000c
ffc8000cffc1ffcf
ffef0012000d002e
ffd2001000340017
002000180040ffc3
ffd90010fff2000c
0029ffd4002cfff2
ffebffec0006ffc3
0016ffd3ffef0012
ffd40014001a0019
ffe5fff5fff00003
fffb00110004ffdb
ffdf0004ffc2000a
ffec0017003a0010
002f0051ffd80028
fff40011002effec
ffecffe3ffdfffb2
002d0024ffafffea
0024ffb5ffe5fffe
0017ffdb00270014
ffff003600170045
003fffcb003affe2
ff9f00000007fff4
ffef002c0031002d
0033000affed0036
0026ffea0063ffee
00230039001a000c
ffd50005004effe4
00030021000f0007
ffd7001bffe6ffd3
00160018ffcbfff4
ffde002c0017001f
001fffff0025ffea
ffffffe60035ffb1
fffaffc5002c0027
001fffeb000b0024
0015ffc3fff3fffc
0053fff1ffd3ffec
003b002e00030007
fff800380028ffbf
ffeafff9ffff002e
000a003a001c0015
ffecffe3fff7ffe9
ffe6ffffffba0049
ffd5fff5ffe50038
002900060026ffef
fffe000f00240007
004ffff90000ffd5
ffedfff2fffe0008
002cffc0001c000c
001bffd1ffe70018
00130006fffc000e
ffdd0023ffbe0043
0024fff9ffe8fff3
003d0051ffd3002e
ff91fff20005fff8
00020031001effe0
ffe3003cffc4ffeb
0020ff99fff4ffa5
ffd9002effdc003f
0019000affdeffdc
004f0032002fffee
0026fff4003effd5
ffc70045001cffec
ffd4002afff60032
ffc4000c003dffe6
ffea00280003000f
fff5ffe7002bffbf
ffa2ffef0026fffa
ffbe0015fffc0030
0065fff1ffd6ffd0
0012fffcffe0fff0
fffafffdfff6ffc7
ffe8002fffe60011
ffb9000a003d0016
0006003dffc50001
001dffd3ffe8ffcb
000b0007ffc90007
fffa0026ffe50011
ffe4ffc6fff70045
000c003000370017
0011fff3ffc7ffdb
001fffeeffe70000
005d00160032003f
fff8ffc7ffe60022
fff700380000ffc9
fffeffa8ffc1ffcf
0001003effee0026
001afffa001c000f
ffef0006ffed002e
00150042000c000c
ffffffe2fff4ffe6
ffe4fff4ffea0020
0005fffcfffffff2
fff1ffe40016ffc9
fff60026fff70011
0012ffec0008fffe
fff70008fff3001d
00200003ffee0001
0000fff900000000
0005fff6ffe9fff9
fff20000ffeaffd7
0007ffdafff6ffe3
fffeffedfff30002
001c0023fff5ffbf
000a00090028001d
000dffd7000bffe4
ffb20013ffdefff9
00320032fffb0015
0010ffff00010009
001bfffffff90008
002e0019ffd9000e
ffda002afff20021
001fffc20008000e
ffcc0002fff50025
ffe3001d0005ffd7
ffe9ffceffd60048
ffdc0014ffd0000f
fff0ffe5ffecfffa
001f001d000bffe0
0009fff8fffd0008
001dfff4002bfffe
001c001dffe6000f
ffee0026003bffe2
0009ffc0ffdc0001
ffe60012fff00001
fff40009ffed0013
ffeefff8ffe0002e
ffeb0002000fffe1
fffe0013001fffcc
ffe5fff90019ffe0
fffb002e00000033
0001ffe00008000a
0004ffe20012ffc7
fff50006fffb0007
ffdafff1ffbc0002
ffd9000e002cffe3
fff6ffde0018ffea
0009ffed0008fff7
0012000e0017ffd7
ffebffde00020010
0014fffffff6fffc
fffd0013fffe0008
000dffd90000fff4
ffcd0006ffe70005
ffe7fffcfffb0000
0007001bffe2000f
0004ffe6ffe9002a
ffe7ffeaffeb0019
ffdfffde002affd2
fffdfff0ffe2fffc
ffe9ffff0004ffeb
ffebfffb0018ffee
0003fff50029000b
00170007fff80020
ffe90003ffe4001b
fffbfff900080015
00140014ffdb0005
ffd0ffe8fff40006
001600100014001f
ffe40024fff6ffe9
fffdffe20011000f
fff2000fffbffff1
0007001a0005001c
ffff002cffffffeb
0001fff300020022
0012ffbbffd3ffd5
ffe9002effb6fff3
001100040009001b
001effd500180032
000b00110007ffb9
fff3ffdd0026fff1
